node {
  name: "global_step/Initializer/zeros"
  op: "Const"
  attr {
    key: "_class"
    value {
      list {
        s: "loc:@global_step"
      }
    }
  }
  attr {
    key: "_output_shapes"
    value {
      list {
        shape {
        }
      }
    }
  }
  attr {
    key: "dtype"
    value {
      type: DT_INT64
    }
  }
  attr {
    key: "value"
    value {
      tensor {
        dtype: DT_INT64
        tensor_shape {
        }
        int64_val: 0
      }
    }
  }
}
node {
  name: "global_step"
  op: "VariableV2"
  attr {
    key: "_class"
    value {
      list {
        s: "loc:@global_step"
      }
    }
  }
  attr {
    key: "_output_shapes"
    value {
      list {
        shape {
        }
      }
    }
  }
  attr {
    key: "container"
    value {
      s: ""
    }
  }
  attr {
    key: "dtype"
    value {
      type: DT_INT64
    }
  }
  attr {
    key: "shape"
    value {
      shape {
      }
    }
  }
  attr {
    key: "shared_name"
    value {
      s: ""
    }
  }
}
node {
  name: "global_step/Assign"
  op: "Assign"
  input: "global_step"
  input: "global_step/Initializer/zeros"
  attr {
    key: "T"
    value {
      type: DT_INT64
    }
  }
  attr {
    key: "_class"
    value {
      list {
        s: "loc:@global_step"
      }
    }
  }
  attr {
    key: "_output_shapes"
    value {
      list {
        shape {
        }
      }
    }
  }
  attr {
    key: "use_locking"
    value {
      b: true
    }
  }
  attr {
    key: "validate_shape"
    value {
      b: true
    }
  }
}
node {
  name: "global_step/read"
  op: "Identity"
  input: "global_step"
  attr {
    key: "T"
    value {
      type: DT_INT64
    }
  }
  attr {
    key: "_class"
    value {
      list {
        s: "loc:@global_step"
      }
    }
  }
  attr {
    key: "_output_shapes"
    value {
      list {
        shape {
        }
      }
    }
  }
}
node {
  name: "global_step/IsVariableInitialized"
  op: "IsVariableInitialized"
  input: "global_step"
  attr {
    key: "_class"
    value {
      list {
        s: "loc:@global_step"
      }
    }
  }
  attr {
    key: "_output_shapes"
    value {
      list {
        shape {
        }
      }
    }
  }
  attr {
    key: "dtype"
    value {
      type: DT_INT64
    }
  }
}
node {
  name: "global_step/cond/Switch"
  op: "Switch"
  input: "global_step/IsVariableInitialized"
  input: "global_step/IsVariableInitialized"
  attr {
    key: "T"
    value {
      type: DT_BOOL
    }
  }
  attr {
    key: "_output_shapes"
    value {
      list {
        shape {
        }
        shape {
        }
      }
    }
  }
}
node {
  name: "global_step/cond/switch_t"
  op: "Identity"
  input: "global_step/cond/Switch:1"
  attr {
    key: "T"
    value {
      type: DT_BOOL
    }
  }
  attr {
    key: "_output_shapes"
    value {
      list {
        shape {
        }
      }
    }
  }
}
node {
  name: "global_step/cond/switch_f"
  op: "Identity"
  input: "global_step/cond/Switch"
  attr {
    key: "T"
    value {
      type: DT_BOOL
    }
  }
  attr {
    key: "_output_shapes"
    value {
      list {
        shape {
        }
      }
    }
  }
}
node {
  name: "global_step/cond/pred_id"
  op: "Identity"
  input: "global_step/IsVariableInitialized"
  attr {
    key: "T"
    value {
      type: DT_BOOL
    }
  }
  attr {
    key: "_output_shapes"
    value {
      list {
        shape {
        }
      }
    }
  }
}
node {
  name: "global_step/cond/read"
  op: "Identity"
  input: "global_step/cond/read/Switch:1"
  attr {
    key: "T"
    value {
      type: DT_INT64
    }
  }
  attr {
    key: "_output_shapes"
    value {
      list {
        shape {
        }
      }
    }
  }
}
node {
  name: "global_step/cond/read/Switch"
  op: "RefSwitch"
  input: "global_step"
  input: "global_step/cond/pred_id"
  attr {
    key: "T"
    value {
      type: DT_INT64
    }
  }
  attr {
    key: "_class"
    value {
      list {
        s: "loc:@global_step"
      }
    }
  }
  attr {
    key: "_output_shapes"
    value {
      list {
        shape {
        }
        shape {
        }
      }
    }
  }
}
node {
  name: "global_step/cond/Switch_1"
  op: "Switch"
  input: "global_step/Initializer/zeros"
  input: "global_step/cond/pred_id"
  attr {
    key: "T"
    value {
      type: DT_INT64
    }
  }
  attr {
    key: "_class"
    value {
      list {
        s: "loc:@global_step"
      }
    }
  }
  attr {
    key: "_output_shapes"
    value {
      list {
        shape {
        }
        shape {
        }
      }
    }
  }
}
node {
  name: "global_step/cond/Merge"
  op: "Merge"
  input: "global_step/cond/Switch_1"
  input: "global_step/cond/read"
  attr {
    key: "N"
    value {
      i: 2
    }
  }
  attr {
    key: "T"
    value {
      type: DT_INT64
    }
  }
  attr {
    key: "_output_shapes"
    value {
      list {
        shape {
        }
        shape {
        }
      }
    }
  }
}
node {
  name: "global_step/add/y"
  op: "Const"
  attr {
    key: "_output_shapes"
    value {
      list {
        shape {
        }
      }
    }
  }
  attr {
    key: "dtype"
    value {
      type: DT_INT64
    }
  }
  attr {
    key: "value"
    value {
      tensor {
        dtype: DT_INT64
        tensor_shape {
        }
        int64_val: 0
      }
    }
  }
}
node {
  name: "global_step/add"
  op: "Add"
  input: "global_step/cond/Merge"
  input: "global_step/add/y"
  attr {
    key: "T"
    value {
      type: DT_INT64
    }
  }
  attr {
    key: "_output_shapes"
    value {
      list {
        shape {
        }
      }
    }
  }
}
node {
  name: "tensors/component_0"
  op: "Const"
  device: "/device:CPU:0"
  attr {
    key: "_output_shapes"
    value {
      list {
        shape {
          dim {
            size: 4278
          }
        }
      }
    }
  }
  attr {
    key: "dtype"
    value {
      type: DT_DOUBLE
    }
  }
  attr {
    key: "value"
    value {
      tensor {
        dtype: DT_DOUBLE
        tensor_shape {
          dim {
            size: 4278
          }
        }
        tensor_content: "\232\231\231\231\231\231!@\315\314\314\314\314\314\"@\315\314\314\314\314\314(@\315\314\314\314\314\314&@\000\000\000\000\000\000%@\232\231\231\231\231\231$@ffffff\"@\232\231\231\231\231\231#@ffffff$@ffffff$@ffffff\"@\315\314\314\314\314\314$@ffffff\"@333333\'@ffffff$@\232\231\231\231\231\231&@\232\231\231\231\231\231%@333333%@\315\314\314\314\314\314&@\315\314\314\314\314\314%@\000\000\000\000\000\000*@333333#@333333%@ffffff(@\232\231\231\231\231\231\'@\315\314\314\314\314\314\'@\315\314\314\314\314\314(@\315\314\314\314\314\314%@\315\314\314\314\314\314)@\315\314\314\314\314\314(@333333%@\232\231\231\231\231\231#@\000\000\000\000\000\000#@ffffff\'@\232\231\231\231\231\231$@\000\000\000\000\000\000$@\000\000\000\000\000\000#@\232\231\231\231\231\231%@ffffff$@ffffff\"@\315\314\314\314\314\314(@ffffff(@\232\231\231\231\231\231)@\232\231\231\231\231\231$@ffffff\"@\232\231\231\231\231\231#@ffffff$@\000\000\000\000\000\000%@ffffff&@\315\314\314\314\314\314)@\000\000\000\000\000\000&@\000\000\000\000\000\000&@\232\231\231\231\231\231\"@\000\000\000\000\000\000$@\366(\\\217\302\365%@ffffff)@\000\000\000\000\000\000&@\000\000\000\000\000\000$@\000\000\000\000\000\000\'@\000\000\000\000\000\000\'@\315\314\314\314\314\314$@ffffff)@\315\314\314\314\314\314(@\232\231\231\231\231\231#@333333#@333333\"@333333$@333333!@\000\000\000\000\000\000\"@\000\000\000\000\000\000)@\232\231\231\231\231\231&@\315\314\314\314\314\314#@\232\231\231\231\231\231\"@333333\"@\315\314\314\314\314\314%@\000\000\000\000\000\000\'@\315\314\314\314\314\314!@\315\314\314\314\314\314\"@\232\231\231\231\231\231%@ffffff\'@ffffff&@\315\314\314\314\314\314%@ffffff%@\315\314\314\314\314\314!@\232\231\231\231\231\231)@\232\231\231\231\231\231%@\232\231\231\231\231\231(@ffffff%@\000\000\000\000\000\000\'@\232\231\231\231\231\231&@\232\231\231\231\231\231#@\315\314\314\314\314\314$@\000\000\000\000\000\000&@\000\000\000\000\000\000#@ffffff\"@\315\314\314\314\314\314$@\315\314\314\314\314\314&@ffffff%@\000\000\000\000\000\000)@\315\314\314\314\314\314$@\232\231\231\231\231\231&@\315\314\314\314\314\314#@\000\000\000\000\000\000$@\232\231\231\231\231\231#@ffffff\'@\315\314\314\314\314\314%@\232\231\231\231\231\231%@333333)@\000\000\000\000\000\000%@\315\314\314\314\314\314%@ffffff)@\376\020\021\021\021\021%@\315\314\314\314\314\314&@\315\314\314\314\314\314\"@\315\314\314\314\314\314$@\000\000\000\000\000\000$@\232\231\231\231\231\231&@\232\231\231\231\231\231)@333333$@ffffff#@ffffff%@\000\000\000\000\000\000\"@\000\000\000\000\000\000%@333333)@\000\000\000\000\000\000$@333333&@\000\000\000\000\000\000\"@333333&@\232\231\231\231\231\231#@\000\000\000\000\000\000%@\232\231\231\231\231\231!@\315\314\314\314\314\314&@333333%@ffffff\"@333333\'@ffffff\'@\000\000\000\000\000\000\"@\232\231\231\231\231\231#@\315\314\314\314\314\314#@\315\314\314\314\314\314*@\315\314\314\314\314\314$@\000\000\000\000\000\000*@\000\000\000\000\000\000$@ffffff&@\315\314\314\314\314\314$@\315\314\314\314\314\314&@\000\000\000\000\000\000\"@ffffff&@\315\314\314\314\314\314\"@333333+@\232\231\231\231\231\231!@\000\000\000\000\000\000\'@\315\314\314\314\314\314&@\000\000\000\000\000\000)@\000\000\000\000\000\000\"@333333#@\315\314\314\314\314\314&@333333$@333333(@\232\231\231\231\231\231%@\232\231\231\231\231\231$@\232\231\231\231\231\231\"@ffffff\"@\000\000\000\000\000\000%@\232\231\231\231\231\231(@333333!@333333!@\315\314\314\314\314\314$@\000\000\000\000\000\000\"@333333*@\000\000\000\000\000\000%@\232\231\231\231\231\231&@\232\231\231\231\231\231%@\232\231\231\231\231\231!@\000\000\000\000\000\000$@\000\000\000\000\000\000\"@\000\000\000\000\000\000%@\000\000\000\000\000\000)@\315\314\314\314\314\314\"@\232\231\231\231\231\231)@333333$@\000\000\000\000\000\000\"@\232\231\231\231\231\231$@\232\231\231\231\231\231\"@\000\000\000\000\000\000#@\315\314\314\314\314\314(@\315\314\314\314\314\314\"@333333%@\315\314\314\314\314\314\"@\000\000\000\000\000\000&@\000\000\000\000\000\000\"@\232\231\231\231\231\231#@\000\000\000\000\000\000$@\315\314\314\314\314\314\"@ffffff&@\000\000\000\000\000\000(@333333\"@ffffff!@ffffff(@\000\000\000\000\000\000#@333333#@\315\314\314\314\314\314%@\315\314\314\314\314\314&@ffffff$@\232\231\231\231\231\231!@\232\231\231\231\231\231\"@\000\000\000\000\000\000%@\000\000\000\000\000\000(@\000\000\000\000\000\000#@\232\231\231\231\231\231$@\000\000\000\000\000\000#@\315\314\314\314\314\314$@\000\000\000\000\000\000$@\000\000\000\000\000\000$@\232\231\231\231\231\231#@\315\314\314\314\314\314)@\315\314\314\314\314\314$@\000\000\000\000\000\000#@333333%@\315\314\314\314\314\314&@\000\000\000\000\000\000#@\000\000\000\000\000\000#@\232\231\231\231\231\231%@\232\231\231\231\231\231$@\232\231\231\231\231\231$@\315\314\314\314\314\314\"@ffffff\'@\315\314\314\314\314\314\"@333333%@ffffff\'@333333&@ffffff$@\232\231\231\231\231\231(@\000\000\000\000\000\000$@333333#@\315\314\314\314\314\314%@ffffff!@\000\000\000\000\000\000+@\000\000\000\000\000\000$@\232\231\231\231\231\231\"@ffffff$@\000\000\000\000\000\000$@ffffff$@ffffff%@333333\"@333333#@\315\314\314\314\314\314$@333333&@\232\231\231\231\231\231\"@333333(@333333#@ffffff\"@\315\314\314\314\314\314$@ffffff)@\315\314\314\314\314\314$@ffffff%@\000\000\000\000\000\000\"@\000\000\000\000\000\000&@333333&@\000\000\000\000\000\000)@\232\231\231\231\231\231#@333333$@\000\000\000\000\000\000$@\315\314\314\314\314\314$@\232\231\231\231\231\231%@\315\314\314\314\314\314\'@\000\000\000\000\000\000*@\315\314\314\314\314\314#@ffffff!@\000\000\000\000\000\000%@\000\000\000\000\000\000$@ffffff#@\232\231\231\231\231\231#@\232\231\231\231\231\231\"@\000\000\000\000\000\000\"@\232\231\231\231\231\231(@ffffff#@\232\231\231\231\231\231(@\000\000\000\000\000\000&@ffffff&@\315\314\314\314\314\314&@\232\231\231\231\231\231)@\315\314\314\314\314\314%@\000\000\000\000\000\000\'@\000\000\000\000\000\000\"@333333#@ffffff&@\000\000\000\000\000\000(@333333\"@333333%@\314\335\335\335\335\335%@\000\000\000\000\000\000#@\000\000\000\000\000\000\'@\000\000\000\000\000\000\"@\000\000\000\000\000\000#@\232\231\231\231\231\231%@\315\314\314\314\314\314\"@333333\"@\315\314\314\314\314\314$@\000\000\000\000\000\000,@\315\314\314\314\314\314\"@333333\"@\000\000\000\000\000\000\"@ffffff!@ffffff\"@ffffff\"@\232\231\231\231\231\231$@\000\000\000\000\000\000(@\000\000\000\000\000\000#@\232\231\231\231\231\031*@\000\000\000\000\000\000#@333333&@\000\000\000\000\000\000#@\232\231\231\231\231\231&@\315\314\314\314\314\314#@\000\000\000\000\000\000\"@\315\314\314\314\314\314$@\000\000\000\000\000\000&@\315\314\314\314\314\314%@\315\314\314\314\314\314\"@\315\314\314\314\314\314$@\000\000\000\000\000\000$@ffffff!@\315\314\314\314\314\314\"@\315\314\314\314\314\314(@\315\314\314\314\314\314!@333333\"@\000\000\000\000\000\000%@ffffff(@\000\000\000\000\000\000\"@\315\314\314\314\314\314$@ffffff\"@\232\231\231\231\231\231$@\000\000\000\000\000\000$@\315\314\314\314\314\314(@333333%@\000\000\000\000\000\000$@\315\314\314\314\314\314$@\000\000\000\000\000\000#@ffffff!@\000\000\000\000\000\000#@\232\231\231\231\231\231\"@ffffff%@\315\314\314\314\314\314 @\315\314\314\314\314\314$@\232\231\231\231\231\231#@\232\231\231\231\231\231%@ffffff&@333333)@\000\000\000\000\000\000\"@333333&@ffffff%@333333\"@\315\314\314\314\314\314\"@\000\000\000\000\000\000$@\232\231\231\231\231\231)@\232\231\231\231\231\231&@\000\000\000\000\000\000#@ffffff&@\000\000\000\000\000\000&@ffffff\"@333333&@\315\314\314\314\314\314\'@333333&@\000\000\000\000\000\000$@\000\000\000\000\000\000&@\000\000\000\000\000\000&@\315\314\314\314\314\314&@\232\231\231\231\231\031%@ffffff#@\000\000\000\000\000\000\"@\315\314\314\314\314\314#@\000\000\000\000\000\000%@\000\000\000\000\000\000$@\000\000\000\000\000\000)@\315\314\314\314\314\314&@\315\314\314\314\314\314\"@\232\231\231\231\231\231#@ffffff#@\232\231\231\231\231\231#@\315\314\314\314\314\314\"@\000\000\000\000\000\000#@\000\000\000\000\000\000%@\000\000\000\000\000\000)@\000\000\000\000\000\000)@ffffff$@\232\231\231\231\231\231\"@\315\314\314\314\314\314\'@333333\"@ffffff$@\000\000\000\000\000\000#@333333#@\000\000\000\000\000\000#@\000\000\000\000\000\000#@ffffff\"@\232\231\231\231\231\231\"@\232\231\231\231\231\231&@\232\231\231\231\231\231%@\000\000\000\000\000\000#@333333#@\232\231\231\231\231\231#@333333$@\315\314\314\314\314\314\'@4\"\"\"\"\"(@ffffff#@ffffff(@\232\231\231\231\231\231%@\002\357\356\356\356\356$@ffffff#@\232\231\231\231\231\231#@333333$@\000\000\000\000\000\000$@\232\231\231\231\231\231&@\232\231\231\231\231\231%@\315\314\314\314\314L$@333333\"@\315\314\314\314\314\314$@ffffff%@\000\000\000\000\000\000#@\000\000\000\000\000\000%@ffffff&@333333!@\315\314\314\314\314\314#@ffffff&@\232\231\231\231\231\231)@\315\314\314\314\314\314&@\315\314\314\314\314\314\"@\315\314\314\314\314\314)@\315\314\314\314\314\314#@\000\000\000\000\000\000&@333333%@\232\231\231\231\231\231%@\232\231\231\231\231\231&@\000\000\000\000\000\000#@\000\000\000\000\000\000#@333333#@\232\231\231\231\231\231\"@\315\314\314\314\314\314)@\315\314\314\314\314\314#@ffffff$@\315\314\314\314\314\314$@\000\000\000\000\000\000%@\000\000\000\000\000\000$@\000\000\000\000\000\000(@ffffff*@\232\231\231\231\231\231%@\315\314\314\314\314\314%@\315\314\314\314\314\314#@\232\231\231\231\231\231%@\232\231\231\231\231\231&@\315\314\314\314\314\314%@333333#@333333&@ffffff$@333333#@\000\000\000\000\000\000$@333333#@ffffff\'@\315\314\314\314\314\314)@\000\000\000\000\000\000$@\232\231\231\231\231\231(@333333(@ffffff)@\315\314\314\314\314\314)@\232\231\231\231\231\231#@\000\000\000\000\000\000(@\315\314\314\314\314\314(@ffffff)@\315\314\314\314\314\314\'@\000\000\000\000\000\000#@333333#@\232\231\231\231\231\231#@ffffff\"@\000\000\000\000\000\000#@ffffff$@\000\000\000\000\000\000(@\232\231\231\231\231\231$@333333!@ffffff&@\000\000\000\000\000\000#@ffffff\"@\315\314\314\314\314\314!@333333$@\000\000\000\000\000\000\"@\000\000\000\000\000\000%@\315\314\314\314\314\314*@\000\000\000\000\000\000)@\315\314\314\314\314L%@333333#@333333&@333333\"@ffffff&@\000\000\000\000\000\000#@\000\000\000\000\000\000%@\232\231\231\231\231\231\"@\315\314\314\314\314\314\"@ffffff#@ffffff\"@ffffff$@\315\314\314\314\314\314(@\315\314\314\314\314\314&@\232\231\231\231\231\231#@ffffff\"@333333#@\315\314\314\314\314\314&@ffffff#@\000\000\000\000\000\000$@\315\314\314\314\314\314)@ffffff(@\000\000\000\000\000\000\"@\315\314\314\314\314\314\"@333333#@\232\231\231\231\231\231&@333333(@\000\000\000\000\000\000&@333333$@ffffff!@ffffff$@\000\000\000\000\000\000&@333333$@\315\314\314\314\314\314\"@\000\000\000\000\000\000&@\315\314\314\314\314\314#@\000\000\000\000\000\000#@\315\314\314\314\314\314#@333333%@\000\000\000\000\000\000(@\315\314\314\314\314\314$@\315\314\314\314\314\314\"@\232\231\231\231\231\231%@\232\231\231\231\231\231#@333333*@\232\231\231\231\231\231)@\232\231\231\231\231\231%@ffffff!@ffffff%@\232\231\231\231\231\231#@\315\314\314\314\314\314#@\315\314\314\314\314\314\"@\232\231\231\231\231\231&@ffffff%@\000\000\000\000\000\000(@333333\'@\232\231\231\231\231\231%@ffffff$@\315\314\314\314\314\314\"@\000\000\000\000\000\000(@ffffff$@333333#@\232\231\231\231\231\231$@\315\314\314\314\314\314$@\232\231\231\231\231\231#@\315\314\314\314\314\314\"@333333!@\232\231\231\231\231\231&@\232\231\231\231\231\231%@ffffff(@\000\000\000\000\000\000#@333333\"@\000\000\000\000\000\000#@\000\000\000\000\000\000&@4\"\"\"\"\"+@\232\231\231\231\231\231\"@\232\231\231\231\231\231&@333333%@\315\314\314\314\314\314!@ffffff\"@ffffff(@\232\231\231\231\231\231(@\000\000\000\000\000\000$@333333(@ffffff#@333333#@\000\000\000\000\000\000\"@ffffff&@ffffff$@\000\000\000\000\000\000)@\000\000\000\000\000\000%@\232\231\231\231\231\231&@\315\314\314\314\314\314#@ffffff$@\232\231\231\231\231\231$@\315\314\314\314\314\314&@ffffff(@\315\314\314\314\314\314(@\000\000\000\000\000\000\"@\232\231\231\231\231\231)@ffffff%@\232\231\231\231\231\231\"@333333%@\000\000\000\000\000\000(@\315\314\314\314\314\314(@\000\000\000\000\000\000&@\232\231\231\231\231\231*@\315\314\314\314\314\314&@\232\231\231\231\231\231(@\000\000\000\000\000\000\'@ffffff$@\232\231\231\231\231\231$@\000\000\000\000\000\000#@333333$@\315\314\314\314\314\314#@\315\314\314\314\314\314(@\315\314\314\314\314\314!@\315\314\314\314\314\314$@\000\000\000\000\000\000(@\232\231\231\231\231\231\"@\315\314\314\314\314\314(@\000\000\000\000\000\000\'@\000\000\000\000\000\000#@ffffff!@\000\000\000\000\000\000&@333333\"@ffffff!@ffffff$@\232\231\231\231\231\231!@\000\000\000\000\000\000$@\232\231\231\231\231\231)@\232\231\231\231\231\231\'@\000\000\000\000\000\200(@ffffff&@\232\231\231\231\231\231#@\000\000\000\000\000\000%@\315\314\314\314\314\314*@\232\231\231\231\231\231#@\232\231\231\231\231\231#@\000\000\000\000\000\000#@ffffff\'@\315\314\314\314\314\314\"@\232\231\231\231\231\231%@\000\000\000\000\000\000%@vwwwww#@333333%@ffffff)@ffffff&@ffffff$@\232\231\231\231\231\231&@\232\231\231\231\231\231\"@\315\314\314\314\314\314$@\232\231\231\231\231\231$@\232\231\231\231\231\231#@ffffff&@\000\000\000\000\000\000%@\000\000\000\000\000\000)@ffffff\'@\232\231\231\231\231\231!@\000\000\000\000\000\000#@\376\020\021\021\021\021$@\232\231\231\231\231\231\"@\315\314\314\314\314\314#@\000\000\000\000\000\000\"@4\"\"\"\"\"&@\315\314\314\314\314\314%@\232\231\231\231\231\231$@\000\000\000\000\000\000\"@\000\000\000\000\000\000$@ffffff&@\000\000\000\000\000\000$@333333\"@ffffff$@\232\231\231\231\231\231#@ffffff$@ffffff&@ffffff$@\000\000\000\000\000\000%@\315\314\314\314\314\314\"@\000\000\000\000\000\000#@ffffff#@333333\"@\000\000\000\000\000\000(@\232\231\231\231\231\231)@\232\231\231\231\231\231#@\232\231\231\231\231\231\"@ffffff\"@\000\000\000\000\000\000#@ffffff$@333333#@333333%@\232\231\231\231\231\231\"@333333&@ffffff$@\232\231\231\231\231\231%@\000\000\000\000\000\000\'@\232\231\231\231\231\231#@\000\000\000\000\000\000\'@\315\314\314\314\314\314 @\232\231\231\231\231\231+@\000\000\000\000\000\000#@333333#@ffffff$@333333\'@333333&@\232\231\231\231\231\231%@\315\314\314\314\314\314$@\232\231\231\231\231\231!@\000\000\000\000\000\000%@\232\231\231\231\231\231%@\315\314\314\314\314\314\"@\000\000\000\000\000\000$@\315\314\314\314\314\314#@333333&@\232\231\231\231\231\231)@\000\000\000\000\000\000#@\000\000\000\000\000\000%@\315\314\314\314\314\314%@333333$@\000\000\000\000\000\000&@\232\231\231\231\231\231&@333333+@ffffff\'@\000\000\000\000\000\000*@\000\000\000\000\000\000$@ffffff#@ffffff&@\315\314\314\314\314\314\"@\315\314\314\314\314\314#@ffffff\"@333333$@\315\314\314\314\314\314&@333333$@\232\231\231\231\231\231)@ffffff)@\315\314\314\314\314\314&@ffffff!@\315\314\314\314\314\314&@\000\000\000\000\000\000*@\000\000\000\000\000\000\"@\232\231\231\231\231\231$@\315\314\314\314\314\314\"@\232\231\231\231\231\231(@\315\314\314\314\314\314\"@\315\314\314\314\314\314\"@\000\000\000\000\000\000&@333333)@\000\000\000\000\000\000(@\000\000\000\000\000\000\"@\315\314\314\314\314\314(@\315\314\314\314\314\314#@\315\314\314\314\314\314#@333333$@333333%@\000\000\000\000\000\000(@\315\314\314\314\314\314&@\315\314\314\314\314\314&@\315\314\314\314\314\314\'@ffffff%@ffffff!@\000\000\000\000\000\000&@\232\231\231\231\231\231%@\232\231\231\231\231\231\"@\232\231\231\231\231\231$@ffffff\"@\315\314\314\314\314\314$@333333#@\315\314\314\314\314\314\"@333333#@333333&@\315\314\314\314\314\314$@333333%@\000\000\000\000\000\000\'@\315\314\314\314\314\314)@\315\314\314\314\314\314!@\315\314\314\314\314\314\"@ffffff)@\232\231\231\231\231\231&@\000\000\000\000\000\000%@\000\000\000\000\000\000\'@\232\231\231\231\231\231\'@333333!@\315\314\314\314\314\314)@\232\231\231\231\231\231$@\315\314\314\314\314\314\"@\000\000\000\000\000\000%@333333#@\315\314\314\314\314\314%@\000\000\000\000\000\000#@\232\231\231\231\231\231%@ffffff+@\000\000\000\000\000\000$@\000\000\000\000\000\000%@\315\314\314\314\314\314#@\000\000\000\000\000\000#@\232\231\231\231\231\231!@\000\000\000\000\000\000#@\000\000\000\000\000\000\'@\315\314\314\314\314\314\"@\000\000\000\000\000\000\'@ffffff\"@\232\231\231\231\231\231%@\232\231\231\231\231\231%@333333$@\000\000\000\000\000\000#@\000\000\000\000\000\000(@\000\000\000\000\000\000#@ffffff#@333333$@\315\314\314\314\314\314\"@ffffff$@ffffff$@\232\231\231\231\231\231\'@\315\314\314\314\314\314\"@\315\314\314\314\314\314\'@\232\231\231\231\231\231#@333333&@\315\314\314\314\314\314#@\000\000\000\000\000\000#@ffffff$@\315\314\314\314\314\314(@\232\231\231\231\231\231\'@\000\000\000\000\000\000(@ffffff)@ffffff\"@ffffff(@\232\231\231\231\231\231\'@\000\000\000\000\000\000)@ffffff#@\315\314\314\314\314\314$@\232\231\231\231\231\231#@\000\000\000\000\000\000$@ffffff\"@\315\314\314\314\314\314&@\232\231\231\231\231\231)@\000\000\000\000\000\000%@\000\000\000\000\000\000\'@\315\314\314\314\314\314$@\315\314\314\314\314\314$@333333\"@ffffff\"@\000\000\000\000\000\000\"@\315\314\314\314\314\314!@333333%@ffffff$@333333*@ffffff)@\000\000\000\000\000\000\"@ffffff#@\315\314\314\314\314\314\"@333333%@\000\000\000\000\000\000#@333333%@ffffff(@ffffff\'@\232\231\231\231\231\231!@\000\000\000\000\000\000(@\000\000\000\000\000\000&@\000\000\000\000\000\000%@333333#@\232\231\231\231\231\231&@ffffff\"@\000\000\000\000\000\000%@333333#@\232\231\231\231\231\231!@333333#@333333$@ffffff$@\000\000\000\000\000\000#@\232\231\231\231\231\231\'@\232\231\231\231\231\231)@333333$@333333$@\000\000\000\000\000\000#@\232\231\231\231\231\231\"@333333#@ffffff&@\315\314\314\314\314\314&@\000\000\000\000\000\000)@333333)@\315\314\314\314\314\314&@\315\314\314\314\314\314\"@\232\231\231\231\231\231)@\315\314\314\314\314\314!@\232\231\231\231\231\231\"@\232\231\231\231\231\231\"@ffffff&@\315\314\314\314\314\314$@\000\000\000\000\000\000#@\000\000\000\000\000\000&@\000\000\000\000\000\000)@ffffff!@\315\314\314\314\314\314&@333333\'@\232\231\231\231\231\231(@\315\314\314\314\314\314(@ffffff%@\232\231\231\231\231\231$@\315\314\314\314\314\314!@\232\231\231\231\231\231\"@\315\314\314\314\314\314\"@\000\000\000\000\000\000#@\315\314\314\314\314\314\"@\315\314\314\314\314\314%@\000\000\000\000\000\000*@\232\231\231\231\231\231(@333333)@ffffff%@\232\231\231\231\231\231#@\000\000\000\000\000\000&@\000\000\000\000\000\000#@\315\314\314\314\314\314#@333333#@\315\314\314\314\314\314#@ffffff\'@333333)@\315\314\314\314\314\314#@\000\000\000\000\000\000&@\000\000\000\000\000\000$@\000\000\000\000\000\000#@\315\314\314\314\314\314!@\000\000\000\000\000\000%@\315\314\314\314\314\314$@333333$@333333#@\000\000\000\000\000\000\"@\315\314\314\314\314\314$@\232\231\231\231\231\231!@\315\314\314\314\314\314!@\315\314\314\314\314\314#@ffffff)@\000\000\000\000\000\000\"@\315\314\314\314\314\314\"@\232\231\231\231\231\231%@\315\314\314\314\314\314$@\315\314\314\314\314\314)@\315\314\314\314\314\314$@\315\314\314\314\314\314#@333333&@\232\231\231\231\231\231$@\232\231\231\231\231\231!@\000\000\000\000\000\000&@ffffff)@\000\000\000\000\000\000&@ffffff#@ffffff$@ffffff%@ffffff\'@\315\314\314\314\314\314&@\315\314\314\314\314\314&@333333%@fffff\346\'@\232\231\231\231\231\231#@333333$@\232\231\231\231\231\231(@\000\000\000\000\000\000#@\315\314\314\314\314\314%@\232\231\231\231\231\231#@\315\314\314\314\314\314\"@\315\314\314\314\314\314#@\000\000\000\000\000\000$@\000\000\000\000\000\000%@ffffff&@\315\314\314\314\314\314#@\315\314\314\314\314\314\"@ffffff%@\000\000\000\000\000\000&@\315\314\314\314\314\314\"@\000\000\000\000\000\000*@\315\314\314\314\314\314\"@\232\231\231\231\231\231$@ffffff%@\315\314\314\314\314\314\"@\000\000\000\000\000\000%@333333(@ffffff+@\315\314\314\314\314\314#@\232\231\231\231\231\231\"@\000\000\000\000\000\000 @ffffff\"@\232\231\231\231\231\231!@ffffff!@ffffff)@ffffff&@\232\231\231\231\231\231\'@\315\314\314\314\314\314&@\232\231\231\231\231\231#@ffffff\"@\232\231\231\231\231\231#@333333#@\232\231\231\231\231\031%@\000\000\000\000\000\000\"@\315\314\314\314\314\314\"@\315\314\314\314\314\314#@\315\314\314\314\314\314(@333333%@ffffff#@ffffff$@ffffff&@\000\000\000\000\000\000\"@\232\231\231\231\231\231&@\315\314\314\314\314\314\"@ffffff\'@\232\231\231\231\231\231%@ffffff$@333333&@\000\000\000\000\000\000#@\232\231\231\231\231\231%@\232\231\231\231\231\231)@\315\314\314\314\314\314%@ffffff$@\000\000\000\000\000\000&@\315\314\314\314\314\314$@ffffff\"@\315\314\314\314\314\314#@\232\231\231\231\231\231&@333333)@\232\231\231\231\231\231)@\232\231\231\231\231\231(@\315\314\314\314\314\314$@\232\231\231\231\231\231&@333333\"@\232\231\231\231\231\231$@ffffff\"@\000\000\000\000\000\000)@333333#@\232\231\231\231\231\231$@333333\"@ffffff$@333333&@\000\000\000\000\000\000&@333333\"@ffffff$@333333$@\232\231\231\231\231\231#@\000\000\000\000\000\000#@ffffff#@333333(@ffffff#@\000\000\000\000\000\000\"@\000\000\000\000\000\000&@\000\000\000\000\000\000\'@\232\231\231\231\231\231%@333333$@\315\314\314\314\314\314$@333333$@333333!@\000\000\000\000\000\000#@\315\314\314\314\314\314\"@ffffff%@333333#@\315\314\314\314\314\314&@\315\314\314\314\314\314\"@333333#@\315\314\314\314\314\314\"@\000\000\000\000\000\000&@\315\314\314\314\314\314(@\000\000\000\000\000\000%@ffffff(@ffffff)@\315\314\314\314\314\314\"@ffffff%@ffffff!@333333&@333333#@\315\314\314\314\314\314)@\000\000\000\000\000\000#@\315\314\314\314\314\314$@\232\231\231\231\231\231(@\232\231\231\231\231\231%@\000\000\000\000\000\000#@\000\000\000\000\000\000$@\232\231\231\231\231\231%@\315\314\314\314\314\314%@\315\314\314\314\314\314#@ffffff#@\000\000\000\000\000\000%@\315\314\314\314\314\314\"@ffffff\"@ffffff#@\232\231\231\231\231\231&@\315\314\314\314\314\314$@\000\000\000\000\000\000$@ffffff%@\000\000\000\000\000\000\'@\000\000\000\000\000\000#@ffffff\"@\232\231\231\231\231\231!@\000\000\000\000\000\000&@\315\314\314\314\314\314&@ffffff(@\315\314\314\314\314\314!@333333%@\315\314\314\314\314\314#@\315\314\314\314\314\314#@333333%@333333#@\315\314\314\314\314\314#@\000\000\000\000\000\000\"@ffffff\'@\315\314\314\314\314\314)@\000\000\000\000\000\000\"@\232\231\231\231\231\231(@ffffff*@333333%@\232\231\231\231\231\231\"@\000\000\000\000\000\000&@\232\231\231\231\231\231#@\315\314\314\314\314\314#@\232\231\231\231\231\231\"@\000\000\000\000\000\000\"@ffffff&@333333&@fffff\346&@\000\000\000\000\000\000$@ffffff\"@ffffff\'@\232\231\231\231\231\231$@\232\231\231\231\231\231\"@333333\"@\000\000\000\000\000\000%@\000\000\000\000\000\000#@\315\314\314\314\314\314#@\000\000\000\000\000\200)@\000\000\000\000\000\000$@333333#@\000\000\000\000\000\000$@\232\231\231\231\231\231$@\000\000\000\000\000\000\'@ffffff#@\315\314\314\314\314\314!@\315\314\314\314\314\314$@ffffff$@333333\"@\000\000\000\000\000\000#@\315\314\314\314\314\314!@\000\000\000\000\000\000)@ffffff\"@\232\231\231\231\231\231%@ffffff(@333333)@\232\231\231\231\231\231!@ffffff\"@333333&@\232\231\231\231\231\231%@ffffff#@\000\000\000\000\000\000*@ffffff$@\000\000\000\000\000\000\"@\000\000\000\000\000\000&@ffffff(@\315\314\314\314\314\314\'@\000\000\000\000\000\000%@\000\000\000\000\000\000%@333333+@333333&@\232\231\231\231\231\231#@\315\314\314\314\314\314!@\000\000\000\000\000\000&@\315\314\314\314\314\314\"@ffffff(@\000\000\000\000\000\000)@\315\314\314\314\314\314\'@ffffff#@\232\231\231\231\231\231\'@333333\"@\315\314\314\314\314\314&@\232\231\231\231\231\231#@\000\000\000\000\000\000%@333333%@\232\231\231\231\231\231!@\000\000\000\000\000\000\'@333333)@\315\314\314\314\314\314!@\000\000\000\000\000\000\"@\000\000\000\000\000\000\'@\232\231\231\231\231\231\"@333333#@ffffff\"@\232\231\231\231\231\231(@\315\314\314\314\314\314!@\000\000\000\000\000\000$@\232\231\231\231\231\231%@\315\314\314\314\314\314\"@\315\314\314\314\314\314\"@\000\000\000\000\000\000&@\232\231\231\231\231\231#@\000\000\000\000\000\000\"@ffffff\"@ffffff&@\000\000\000\000\000\000&@\000\000\000\000\000\000&@\000\000\000\000\000\000*@\232\231\231\231\231\231%@\315\314\314\314\314\314$@\000\000\000\000\000\000\"@ffffff$@\232\231\231\231\231\231\"@\000\000\000\000\000\000%@\000\000\000\000\000\000(@ffffff\"@\232\231\231\231\231\231&@333333%@333333#@\000\000\000\000\000\000%@\000\000\000\000\000\000!@\315\314\314\314\314\314)@\232\231\231\231\231\231$@333333&@\315\314\314\314\314\314\"@\315\314\314\314\314\314\"@\000\000\000\000\000\000(@\315\314\314\314\314\314#@\000\000\000\000\000\000%@\000\000\000\000\000\000#@\000\000\000\000\000\000$@\232\231\231\231\231\231!@\232\231\231\231\231\231%@\000\000\000\000\000\000#@\315\314\314\314\314\314$@2DDDDD*@\000\000\000\000\000\000&@\232\231\231\231\231\231\'@\000\000\000\000\000\000#@\315\314\314\314\314\314$@\315\314\314\314\314\314$@\315\314\314\314\314\314$@\232\231\231\231\231\231#@\232\231\231\231\231\231$@\315\314\314\314\314\314&@\315\314\314\314\314\314#@333333#@\315\314\314\314\314\314&@333333\"@ffffff\"@\000\000\000\000\000\000#@\232\231\231\231\231\231%@\315\314\314\314\314\314&@\000\000\000\000\000\000\"@ffffff&@\000\000\000\000\000\000%@\000\000\000\000\000\000#@\315\314\314\314\314\314\'@\000\000\000\000\000\000\"@333333\"@333333)@ffffff#@$\"\"\"\"\"#@\315\314\314\314\314\314\"@\000\000\000\000\000\000#@ffffff#@\000\000\000\000\000\000%@\000\000\000\000\000\000#@333333%@ffffff&@\000\000\000\000\000\000%@\232\231\231\231\231\231&@\000\000\000\000\000\000*@\000\000\000\000\000\000#@ffffff\"@\000\000\000\000\000\000\'@\315\314\314\314\314\314&@\000\000\000\000\000\000$@\000\000\000\000\000\000%@333333\"@\232\231\231\231\231\231$@333333\'@\315\314\314\314\314\314&@\232\231\231\231\231\231\"@\232\231\231\231\231\231)@\315\314\314\314\314\314\"@\315\314\314\314\314\314\'@\000\000\000\000\000\000\"@333333(@\000\000\000\000\000\000&@333333%@333333&@333333#@\315\314\314\314\314\314\'@ffffff#@\315\314\314\314\314\314!@333333)@\315\314\314\314\314\314%@ffffff\"@\315\314\314\314\314\314!@\315\314\314\314\314\314$@ffffff(@\000\000\000\000\000\000&@\232\231\231\231\231\231!@ffffff(@333333&@\232\231\231\231\231\231)@\232\231\231\231\231\231\'@\315\314\314\314\314\314$@ffffff(@\315\314\314\314\314\314#@\000\000\000\000\000\000\"@333333$@\000\000\000\000\000\000$@\315\314\314\314\314\314#@ffffff&@\232\231\231\231\231\231(@\232\231\231\231\231\231#@ffffff$@\315\314\314\314\314\314&@\000\000\000\000\000\000&@\000\000\000\000\000\000#@333333&@333333#@\232\231\231\231\231\231#@\000\000\000\000\000\000%@\315\314\314\314\314\314\"@\000\000\000\000\000\000#@\000\000\000\000\000\000)@333333\"@\000\000\000\000\000\000\"@\232\231\231\231\231\231\'@\000\000\000\000\000\000&@333333%@ffffff(@\000\000\000\000\000\000%@\315\314\314\314\314\314%@\315\314\314\314\314\314\'@ffffff\'@\000\000\000\000\000\000$@333333$@ffffff$@\000\000\000\000\000\000$@\000\000\000\000\000\000&@\315\314\314\314\314\314$@333333$@\232\231\231\231\231\231(@333333)@\000\000\000\000\000\000#@\000\000\000\000\000\000#@\315\314\314\314\314\314\"@ffffff$@\000\000\000\000\000\000&@ffffff\"@\000\000\000\000\000\000#@333333&@\315\314\314\314\314\314%@333333\"@\232\231\231\231\231\231\'@\232\231\231\231\231\231!@ffffff(@\232\231\231\231\231\231&@\000\000\000\000\000\000$@333333\"@\000\000\000\000\000\000&@ffffff(@\000\000\000\000\000\000%@\232\231\231\231\231\231!@\315\314\314\314\314\314\"@ffffff(@333333&@\000\000\000\000\000\000#@\000\000\000\000\000\000$@\000\000\000\000\000\000%@333333#@\000\000\000\000\000\000$@ffffff%@\232\231\231\231\231\231(@\315\314\314\314\314\314$@\315\314\314\314\314\314$@\315\314\314\314\314\314#@\232\231\231\231\231\231%@ffffff\"@\000\000\000\000\000\000&@\232\231\231\231\231\231#@\232\231\231\231\231\231#@ffffff#@\232\231\231\231\231\231&@\000\000\000\000\000\000%@\000\000\000\000\000\000&@\232\231\231\231\231\231\"@\000\000\000\000\000\000\"@\315\314\314\314\314\314!@\315\314\314\314\314\314!@\000\000\000\000\000\000\"@\000\000\000\000\000\000%@333333$@333333\"@333333#@\232\231\231\231\231\231(@\000\000\000\000\000\000(@\315\314\314\314\314\314\"@333333#@\315\314\314\314\314\314\"@\232\231\231\231\231\231#@\315\314\314\314\314\314(@\000\000\000\000\000\000#@\315\314\314\314\314\314$@ffffff%@333333%@ffffff$@333333\"@333333\'@ffffff#@\315\314\314\314\314\314\"@\315\314\314\314\314\314!@\232\231\231\231\231\231#@333333%@ffffff#@\000\000\000\000\000\000#@\232\231\231\231\231\231#@ffffff$@\232\231\231\231\231\231$@\315\314\314\314\314\314&@\000\000\000\000\000\000#@\000\000\000\000\000\000(@\232\231\231\231\231\231\"@\232\231\231\231\231\231+@ffffff&@\000\000\000\000\000\000\'@\000\000\000\000\000\000%@ffffff&@ffffff&@\315\314\314\314\314\314!@ffffff$@\000\000\000\000\000\000)@\000\000\000\000\000\000$@ffffff#@333333!@\232\231\231\231\231\231$@\000\000\000\000\000\000\'@\000\000\000\000\000\000#@333333$@\000\000\000\000\000\000)@\232\231\231\231\231\231(@\232\231\231\231\231\231&@ffffff$@333333$@\315\314\314\314\314\314!@333333$@\000\000\000\000\000\000$@\000\000\000\000\000\000(@333333\"@333333$@\232\231\231\231\231\231\'@ffffff\"@333333&@\000\000\000\000\000\000(@333333(@333333&@\315\314\314\314\314\314\"@\232\231\231\231\231\231)@ffffff(@ffffff&@ffffff)@\315\314\314\314\314\314#@333333&@\232\231\231\231\231\231\"@\315\314\314\314\314\314!@\232\231\231\231\231\231\"@333333%@333333\"@\232\231\231\231\231\231%@333333$@\000\000\000\000\000\000\"@\000\000\000\000\000\000%@\000\000\000\000\000\000\"@ffffff&@ffffff\"@ffffff$@\315\314\314\314\314\314\"@\232\231\231\231\231\231!@\000\000\000\000\000\000%@\315\314\314\314\314\314%@333333(@\000\000\000\000\000\000%@\232\231\231\231\231\231\"@\315\314\314\314\314\314\"@\232\231\231\231\231\231$@ffffff*@ffffff$@\000\000\000\000\000\000\"@\000\000\000\000\000\000#@333333(@\232\231\231\231\231\231#@ffffff)@\000\000\000\000\000\000!@333333$@\232\231\231\231\231\231!@\232\231\231\231\231\231!@\000\000\000\000\000\000&@\000\000\000\000\000\000(@\000\000\000\000\000\000(@\000\000\000\000\000\000$@ffffff\'@\232\231\231\231\231\231#@\000\000\000\000\000\000%@\000\000\000\000\000\000\"@\315\314\314\314\314\314$@333333%@\232\231\231\231\231\231#@\000\000\000\000\000\000%@\315\314\314\314\314\314*@\232\231\231\231\231\231(@\232\231\231\231\231\231\'@ffffff#@\232\231\231\231\231\231\"@\000\000\000\000\000\000%@\315\314\314\314\314\314(@ffffff&@\000\000\000\000\000\000%@\232\231\231\231\231\231&@\232\231\231\231\231\231\"@\000\000\000\000\000\000\'@\315\314\314\314\314\314&@333333$@\000\000\000\000\000\000&@\000\000\000\000\000\000%@\315\314\314\314\314\314#@ffffff$@333333#@333333%@ffffff#@\000\000\000\000\000\000$@333333&@\000\000\000\000\000\000\"@333333&@\000\000\000\000\000\000\'@\315\314\314\314\314\314$@\315\314\314\314\314\314\"@\232\231\231\231\231\231\"@\315\314\314\314\314\314!@\315\314\314\314\314\314\"@\000\000\000\000\000\000&@\000\000\000\000\000\000#@ffffff\"@333333&@ffffff$@ffffff)@\000\000\000\000\000\000#@\315\314\314\314\314\314\'@\000\000\000\000\000\000)@333333\"@\232\231\231\231\231\231#@\232\231\231\231\231\231\'@\232\231\231\231\231\231&@\315\314\314\314\314\314\"@333333+@\232\231\231\231\231\231!@\000\000\000\000\000\000%@ffffff$@\232\231\231\231\231\231(@\000\000\000\000\000\000)@\000\000\000\000\000\000$@333333&@\315\314\314\314\314\314\"@\000\000\000\000\000\000$@\232\231\231\231\231\231%@\315\314\314\314\314\314&@333333$@\000\000\000\000\000\000&@333333&@333333\'@\000\000\000\000\000\000#@333333$@\315\314\314\314\314\314&@\315\314\314\314\314\314!@\000\000\000\000\000\000&@\315\314\314\314\314\314#@\000\000\000\000\000\000#@ffffff\"@333333#@\232\231\231\231\231\231#@\232\231\231\231\231\231&@\000\000\000\000\000\000#@\315\314\314\314\314\314%@\315\314\314\314\314\314\"@\315\314\314\314\314\314%@\232\231\231\231\231\231\"@333333#@ffffff\'@ffffff\"@\000\000\000\000\000\000&@333333#@\000\000\000\000\000\000#@ffffff&@\315\314\314\314\314\314(@333333\"@\000\000\000\000\000\000\"@ffffff(@\000\000\000\000\000\000#@\000\000\000\000\000\000(@\000\000\000\000\000\000$@\000\000\000\000\000\000#@333333#@333333(@vwwwww#@ffffff$@\000\000\000\000\000\000&@\232\231\231\231\231\231(@\315\314\314\314\314\314#@\000\000\000\000\000\000$@333333#@\315\314\314\314\314\314&@333333)@\000\000\000\000\000\000)@\000\000\000\000\000\000%@\232\231\231\231\231\231%@\000\000\000\000\000\000&@\000\000\000\000\000\000#@ffffff\"@333333#@\000\000\000\000\000\000\"@333333)@\000\000\000\000\000\000(@ffffff$@\315\314\314\314\314\314\"@\000\000\000\000\000\000%@\000\000\000\000\000\000%@333333(@\017\021\021\021\021\021#@ffffff\"@\000\000\000\000\000\000$@\232\231\231\231\231\231\'@\232\231\231\231\231\231\"@\232\231\231\231\231\231%@\232\231\231\231\231\231\"@\000\000\000\000\000\000#@ffffff&@\315\314\314\314\314\314$@\232\231\231\231\231\231#@\315\314\314\314\314\314#@\315\314\314\314\314\314!@\232\231\231\231\231\231)@\232\231\231\231\231\231$@\315\314\314\314\314\314\"@\315\314\314\314\314\314(@ffffff\'@ffffff#@ffffff&@333333#@333333\'@\315\314\314\314\314\314!@ffffff*@\000\000\000\000\000\000&@ffffff%@\000\000\000\000\000\000&@333333$@333333%@\000\000\000\000\000\000&@ffffff%@\000\000\000\000\000\000(@333333#@\315\314\314\314\314\314\"@ffffff!@333333\"@333333\"@\315\314\314\314\314\314\"@\000\000\000\000\000\000#@\232\231\231\231\231\231$@\000\000\000\000\000\000(@\000\000\000\000\000\000\'@\000\000\000\000\000\000\"@ffffff\"@\000\000\000\000\000\000$@ffffff(@ffffff&@\000\000\000\000\000\000#@\232\231\231\231\231\231\"@ffffff(@ffffff&@\232\231\231\231\231\231)@ffffff#@\315\314\314\314\314\314*@ffffff(@\000\000\000\000\000\000%@\001\357\356\356\356\356%@ffffff\'@ffffff$@\315\314\314\314\314\314\'@\000\000\000\000\000\000*@\000\000\000\000\000\000#@ffffff\"@\315\314\314\314\314\314\"@333333#@\232\231\231\231\231\231)@\315\314\314\314\314\314!@\315\314\314\314\314\314\'@ffffff\'@\315\314\314\314\314\314!@\232\231\231\231\231\231&@333333#@\315\314\314\314\314\314)@\315\314\314\314\314\314#@333333$@\000\000\000\000\000\000(@ffffff$@\315\314\314\314\314\314$@\315\314\314\314\314\314#@\315\314\314\314\314\314\"@\315\314\314\314\314\314&@\315\314\314\314\314\314&@\315\314\314\314\314\314&@333333+@\000\000\000\000\000\000$@333333\"@333333\'@\000\000\000\000\000\000#@333333\'@333333%@\000\000\000\000\000\000&@\000\000\000\000\000\000#@\232\231\231\231\231\231(@ffffff!@333333#@\000\000\000\000\000\000%@ffffff$@\232\231\231\231\231\231#@\232\231\231\231\231\231!@\000\000\000\000\000\000#@\315\314\314\314\314\314#@\000\000\000\000\000\000)@\232\231\231\231\231\231$@\000\000\000\000\000\000#@ffffff#@\315\314\314\314\314\314!@ffffff\"@\232\231\231\231\231\231$@fffff\346&@ffffff\'@2DDDDD\'@ffffff%@\232\231\231\231\231\231#@\232\231\231\231\231\231#@\315\314\314\314\314\314(@\315\314\314\314\314\314$@333333&@\315\314\314\314\314\314&@\315\314\314\314\314\314\"@333333\"@ffffff)@333333)@\000\000\000\000\000\000)@\000\000\000\000\000\000\'@\232\231\231\231\231\231)@\232\231\231\231\231\231\"@\000\000\000\000\000\000)@333333$@\000\000\000\000\000\000(@\232\231\231\231\231\231$@\000\000\000\000\000\000%@\232\231\231\231\231\231!@\315\314\314\314\314\314#@\315\314\314\314\314\314#@ffffff)@333333%@\000\000\000\000\000\000#@\315\314\314\314\314\314\"@333333$@\232\231\231\231\231\231&@\315\314\314\314\314\314!@333333\"@ffffff%@ffffff(@\000\000\000\000\000\000#@\000\000\000\000\000\000!@\315\314\314\314\314\314\'@\000\000\000\000\000\000&@333333%@\315\314\314\314\314\314$@\000\000\000\000\000\000%@\315\314\314\314\314\314$@333333\'@\000\000\000\000\000\000$@333333(@\000\000\000\000\000\000\"@\000\000\000\000\000\000$@333333$@\232\231\231\231\231\231&@\315\314\314\314\314\314#@\000\000\000\000\000\000#@ffffff\"@ffffff&@333333\'@ffffff)@\000\000\000\000\000\000%@\315\314\314\314\314\314&@333333&@\315\314\314\314\314\314)@333333%@\000\000\000\000\000\000$@ffffff(@\000\000\000\000\000\000%@ffffff%@ffffff$@\000\000\000\000\000\000#@\315\314\314\314\314\314)@\000\000\000\000\000\000%@333333%@333333$@\315\314\314\314\314\314&@\000\000\000\000\000\000*@\315\314\314\314\314\314\"@\232\231\231\231\231\231%@\315\314\314\314\314\314)@\315\314\314\314\314\314*@333333)@\315\314\314\314\314\314\"@ffffff$@\232\231\231\231\231\231&@ffffff%@333333)@ffffff&@\315\314\314\314\314\314$@\000\000\000\000\000\000&@\232\231\231\231\231\231\"@ffffff$@\000\000\000\000\000\000\'@\315\314\314\314\314\314\"@\315\314\314\314\314\314%@\315\314\314\314\314\314&@\232\231\231\231\231\231&@333333\"@\232\231\231\231\231\231$@333333$@\315\314\314\314\314\314&@ffffff$@\315\314\314\314\314\314%@\232\231\231\231\231\231#@ffffff&@ffffff(@\232\231\231\231\231\231!@\315\314\314\314\314\314\"@\232\231\231\231\231\231$@ffffff\"@\315\314\314\314\314\314\"@\000\000\000\000\000\000#@\315\314\314\314\314\314#@\315\314\314\314\314\314&@\315\314\314\314\314\314#@ffffff#@\000\000\000\000\000\000\"@\315\314\314\314\314\314\"@\000\000\000\000\000\000\'@333333\"@\232\231\231\231\231\231&@\315\314\314\314\314\314\'@\000\000\000\000\000\000\"@\315\314\314\314\314\314\"@\000\000\000\000\000\000(@\000\000\000\000\000\000#@ffffff%@\000\000\000\000\000\000$@\000\000\000\000\000\000#@\000\000\000\000\000\000(@\315\314\314\314\314\314(@\315\314\314\314\314\314&@\000\000\000\000\000\000&@333333(@ffffff(@333333%@\232\231\231\231\231\231%@\315\314\314\314\314\314%@ffffff&@\000\000\000\000\000\000)@\000\000\000\000\000\000&@ffffff%@\232\231\231\231\231\231%@ffffff&@333333#@\315\314\314\314\314\314#@\000\000\000\000\000\000)@\315\314\314\314\314\314$@ffffff$@\000\000\000\000\000\000)@\315\314\314\314\314\314$@\232\231\231\231\231\231%@ffffff&@\000\000\000\000\000\000#@\315\314\314\314\314\314%@\232\231\231\231\231\231#@ffffff\"@333333&@\232\231\231\231\231\231%@\315\314\314\314\314\314\"@ffffff\"@ffffff$@333333(@333333$@\000\000\000\000\000\000(@\232\231\231\231\231\231)@\000\000\000\000\000\000\"@ffffff\"@\000\000\000\000\000\000#@\232\231\231\231\231\231$@333333!@\315\314\314\314\314\314$@\000\000\000\000\000\000\"@ffffff)@ffffff$@\232\231\231\231\231\231\"@\232\231\231\231\231\231\'@ffffff\"@333333%@\232\231\231\231\231\231\'@333333)@\000\000\000\000\000\000\'@\000\000\000\000\000\000$@\000\000\000\000\000\000%@\315\314\314\314\314\314\"@\232\231\231\231\231\231\"@\315\314\314\314\314\314!@\000\000\000\000\000\000%@\000\000\000\000\000\000\"@\000\000\000\000\000\000\"@333333#@333333%@ffffff)@\000\000\000\000\000\000$@ffffff\"@\000\000\000\000\000\000#@\315\314\314\314\314\314*@\232\231\231\231\231\231$@\232\231\231\231\231\231#@333333#@\000\000\000\000\000\000\'@333333%@333333*@\315\314\314\314\314\314%@\000\000\000\000\000\000#@\000\000\000\000\000\000)@\232\231\231\231\231\231$@333333\"@333333%@\000\000\000\000\000\000\'@\000\000\000\000\000\000)@\232\231\231\231\231\231\'@333333\"@\000\000\000\000\000\000,@\000\000\000\000\000\000#@\232\231\231\231\231\231\'@\000\000\000\000\000\000*@ffffff\"@\000\000\000\000\000\000$@\000\000\000\000\000\000(@ffffff#@\232\231\231\231\231\231$@\315\314\314\314\314\314$@ffffff#@\315\314\314\314\314\314&@\315\314\314\314\314\314\"@\000\000\000\000\000\000%@333333&@ffffff\'@\315\314\314\314\314\314$@\000\000\000\000\000\000%@\000\000\000\000\000\000%@\000\000\000\000\000\000&@ffffff\"@ffffff)@ffffff$@333333#@\000\000\000\000\000\000)@ffffff$@\232\231\231\231\231\231\'@333333\'@ffffff#@\232\231\231\231\231\231%@\232\231\231\231\231\231\'@\000\000\000\000\000\000%@\232\231\231\231\231\231!@333333&@333333%@\315\314\314\314\314\314&@\232\231\231\231\231\231#@\000\000\000\000\000\000\"@\315\314\314\314\314\314$@ffffff!@\315\314\314\314\314\314\"@\232\231\231\231\231\231&@\000\000\000\000\000\000%@333333&@333333)@\000\000\000\000\000\000#@\232\231\231\231\231\231*@ffffff%@\315\314\314\314\314\314\"@\000\000\000\000\000\000)@\315\314\314\314\314\314%@\315\314\314\314\314\314$@ffffff$@333333$@\315\314\314\314\314\314%@\232\231\231\231\231\231!@333333%@333333#@\231\252\252\252\252\252&@333333\"@ffffff\"@ffffff#@\315\314\314\314\314\314\"@\000\000\000\000\000\000\"@\315\314\314\314\314\314#@ffffff\"@\000\000\000\000\000\000%@\232\231\231\231\231\231)@333333(@\232\231\231\231\231\231&@\000\000\000\000\000\000#@\232\231\231\231\231\231\'@ffffff%@\000\000\000\000\000\000&@\232\231\231\231\231\231)@\315\314\314\314\314\314\"@\000\000\000\000\000\000%@ffffff#@\000\000\000\000\000\000#@\315\314\314\314\314\314&@333333$@ffffff\'@\000\000\000\000\000\000\"@\000\000\000\000\000\000#@\000\000\000\000\000\000(@\232\231\231\231\231\231&@ffffff!@\232\231\231\231\231\231)@\000\000\000\000\000\000%@\232\231\231\231\231\231$@\000\000\000\000\000\000*@333333\"@ffffff$@\000\000\000\000\000\000#@\315\314\314\314\314\314#@333333%@\315\314\314\314\314\314(@\315\314\314\314\314\314+@\315\314\314\314\314\314\"@\000\000\000\000\000\000)@ffffff\"@ffffff$@\232\231\231\231\231\231)@\232\231\231\231\231\231&@\315\314\314\314\314\314$@\232\231\231\231\231\231!@333333#@ffffff\"@\315\314\314\314\314\314#@333333#@\000\000\000\000\000\000$@\315\314\314\314\314\314\"@\315\314\314\314\314\314%@\232\231\231\231\231\231(@\315\314\314\314\314\314!@\232\231\231\231\231\231%@333333)@ffffff&@\000\000\000\000\000\000\"@fwwwww\'@\000\000\000\000\000\000\'@\315\314\314\314\314\314\"@\000\000\000\000\000\000#@\315\314\314\314\314\314\"@\315\314\314\314\314\314%@ffffff#@\232\231\231\231\231\231#@\000\000\000\000\000\000\'@\000\000\000\000\000\000#@\315\314\314\314\314\314#@\232\231\231\231\231\231%@ffffff(@\000\000\000\000\000\000&@ffffff&@\000\000\000\000\000\200\'@333333&@\315\314\314\314\314\314#@\232\231\231\231\231\231$@333333$@\232\231\231\231\231\231%@\232\231\231\231\231\231(@ffffff)@333333*@\232\231\231\231\231\231$@\315\314\314\314\314\314\"@333333\"@\000\000\000\000\000\000\"@\000\000\000\000\000\000#@\000\000\000\000\000\000%@\000\000\000\000\000\000&@333333\'@\000\000\000\000\000\000\"@\000\000\000\000\000\000%@333333\'@333333%@333333%@\000\000\000\000\000\000$@\232\231\231\231\231\231!@ffffff)@\000\000\000\000\000\000(@333333$@\315\314\314\314\314\314$@ffffff!@\315\314\314\314\314\314%@\000\000\000\000\000\000)@\000\000\000\000\000\000#@\315\314\314\314\314\314&@\315\314\314\314\314\314\"@\232\231\231\231\231\231%@ffffff#@333333\"@\000\000\000\000\000\000$@ffffff\'@333333&@ffffff%@\315\314\314\314\314\314\"@333333\"@\232\231\231\231\231\231%@\000\000\000\000\000\000\'@\232\231\231\231\231\231#@\232\231\231\231\231\231\"@\232\231\231\231\231\231&@\232\231\231\231\231\231$@\232\231\231\231\231\231&@\315\314\314\314\314\314\"@\000\000\000\000\000\000&@\315\314\314\314\314\314)@\000\000\000\000\000\000(@\315\314\314\314\314\314!@ffffff#@\315\314\314\314\314\314%@ffffff\'@\000\000\000\000\000\000*@ffffff#@\232\231\231\231\231\231%@333333#@\000\000\000\000\000\000%@\000\000\000\000\000\000\"@333333&@\000\000\000\000\000\000\'@ffffff(@ffffff%@\232\231\231\231\231\231\'@\000\000\000\000\000\000#@\315\314\314\314\314\314*@ffffff\'@\232\231\231\231\231\231$@333333\"@\315\314\314\314\314\314%@333333#@ffffff!@\232\231\231\231\231\231!@\232\231\231\231\231\231\'@ffffff%@\000\000\000\000\000\000)@\315\314\314\314\314\314\'@\000\000\000\000\000\000(@333333$@ffffff\"@333333#@\232\231\231\231\231\231$@ffffff$@\000\000\000\000\000\000$@333333#@333333&@\315\314\314\314\314\314%@333333)@ffffff\'@333333%@\232\231\231\231\231\231#@\232\231\231\231\231\231#@\315\314\314\314\314\314#@\315\314\314\314\314\314&@\232\231\231\231\231\231%@333333$@\232\231\231\231\231\231)@\315\314\314\314\314\314!@\232\231\231\231\231\231(@ffffff&@\232\231\231\231\231\231%@\315\314\314\314\314\314\"@ffffff#@\315\314\314\314\314\314%@\315\314\314\314\314\314%@\232\231\231\231\231\231%@\000\000\000\000\000\000\"@\315\314\314\314\314\314\"@\315\314\314\314\314\314&@\315\314\314\314\314\314&@fffff\346&@\232\231\231\231\231\231(@ffffff$@ffffff#@\000\000\000\000\000\000\"@\315\314\314\314\314\314&@\000\000\000\000\000\000#@\000\000\000\000\000\000\'@\000\000\000\000\000\000&@4\"\"\"\"\"&@ffffff\'@333333%@\232\231\231\231\231\231%@\000\000\000\000\000\000#@ffffff%@\000\000\000\000\000\000%@\000\000\000\000\000\000$@\232\231\231\231\231\231!@\232\231\231\231\231\231&@\232\231\231\231\231\231(@ffffff\"@\000\000\000\000\000\000\'@\232\231\231\231\231\231%@ffffff\"@\315\314\314\314\314\314$@\315\314\314\314\314\314&@\000\000\000\000\000\000#@\000\000\000\000\000\000\'@ffffff$@\000\000\000\000\000\000*@\232\231\231\231\231\231\"@\232\231\231\231\231\231&@\315\314\314\314\314\314#@\315\314\314\314\314\314%@ffffff$@333333&@\315\314\314\314\314\314$@\000\000\000\000\000\000%@\232\231\231\231\231\231!@333333$@ffffff%@333333#@\000\000\000\000\000\000\"@\315\314\314\314\314\314\"@ffffff%@\000\000\000\000\000\000&@\315\314\314\314\314\314\"@333333*@\232\231\231\231\231\231\"@333333)@\315\314\314\314\314\314&@\232\231\231\231\231\231#@\315\314\314\314\314\314$@\315\314\314\314\314\314%@\232\231\231\231\231\231&@\000\000\000\000\000\000\"@\232\231\231\231\231\231\'@\232\231\231\231\231\231\"@\000\000\000\000\000\000#@\000\000\000\000\000\000\'@\232\231\231\231\231\231%@333333\"@\232\231\231\231\231\231$@\000\000\000\000\000\000,@\232\231\231\231\231\231)@\315\314\314\314\314\314\"@\232\231\231\231\231\231#@ffffff&@\000\000\000\000\000\000%@333333$@\000\000\000\000\000\000(@333333$@ffffff\"@ffffff&@\232\231\231\231\231\231%@\232\231\231\231\231\231$@\232\231\231\231\231\231$@\315\314\314\314\314\314$@\315\314\314\314\314\314#@\315\314\314\314\314\314(@ffffff\"@333333#@ffffff)@333333$@\000\000\000\000\000\000*@\000\000\000\000\000\000(@\315\314\314\314\314\314!@\000\000\000\000\000\000#@ffffff)@ffffff(@333333(@333333#@333333#@333333\"@\000\000\000\000\000\000$@333333$@\000\000\000\000\000\000\"@333333%@\232\231\231\231\231\231%@\232\231\231\231\231\231%@\315\314\314\314\314\314$@\000\000\000\000\000\000(@ffffff%@\000\000\000\000\000\000#@\000\000\000\000\000\000#@ffffff\"@\000\000\000\000\000\000\'@ffffff)@\000\000\000\000\000\000)@333333!@\315\314\314\314\314\314$@\232\231\231\231\231\231%@333333\'@\000\000\000\000\000\000&@\232\231\231\231\231\231!@\315\314\314\314\314\314$@\000\000\000\000\000\000\'@\315\314\314\314\314\314\"@\232\231\231\231\231\231\'@ffffff\"@\315\314\314\314\314\314#@333333#@\000\000\000\000\000\000%@ffffff!@333333#@\315\314\314\314\314\314\'@\315\314\314\314\314\314\"@\000\000\000\000\000\000$@\000\000\000\000\000\000)@\315\314\314\314\314\314(@\000\000\000\000\000\000#@\000\000\000\000\000\000%@\315\314\314\314\314\314$@ffffff(@\315\314\314\314\314\314\"@\000\000\000\000\000\000$@\000\000\000\000\000\000#@333333*@\315\314\314\314\314\314\"@\232\231\231\231\231\231!@ffffff\"@\315\314\314\314\314\314&@\000\000\000\000\000\000&@\000\000\000\000\000\000#@\000\000\000\000\000\000+@333333%@\232\231\231\231\231\231!@333333&@\232\231\231\231\231\231#@\232\231\231\231\231\231#@333333+@ffffff(@\000\000\000\000\000\000#@\000\000\000\000\000\000&@\232\231\231\231\231\231&@333333%@\000\000\000\000\000\000%@ffffff#@333333#@\315\314\314\314\314\314#@\315\314\314\314\314\314\"@\017\021\021\021\021\021#@333333(@\000\000\000\000\000\000#@\315\314\314\314\314\314&@\232\231\231\231\231\031#@\315\314\314\314\314\314\'@\315\314\314\314\314\314*@\000\000\000\000\000\000\'@ffffff\"@\232\231\231\231\231\231\'@333333#@\232\231\231\231\231\231%@\000\000\000\000\000\000#@\000\000\000\000\000\000%@\315\314\314\314\314\314#@\315\314\314\314\314\314%@\000\000\000\000\000\000&@\000\000\000\000\000\000\"@\315\314\314\314\314\314$@333333\"@\232\231\231\231\231\031#@ffffff\'@\232\231\231\231\231\231)@333333%@\000\000\000\000\000\000&@\000\000\000\000\000\000\'@\315\314\314\314\314\314%@\315\314\314\314\314\314&@\000\000\000\000\000\000)@\000\000\000\000\000\000&@\232\231\231\231\231\231!@ffffff$@\000\000\000\000\000\000\'@ffffff$@ffffff%@\000\000\000\000\000\000#@333333%@\267/\226\374b\311)@ffffff%@\000\000\000\000\000\000#@\232\231\231\231\231\231#@\315\314\314\314\314\314#@\000\000\000\000\000\000\"@\232\231\231\231\231\231%@\232\231\231\231\231\231(@ffffff(@\000\000\000\000\000\000\'@\232\231\231\231\231\231$@\315\314\314\314\314\314#@\000\000\000\000\000\000#@\232\231\231\231\231\231(@\000\000\000\000\000\000(@\232\231\231\231\231\231(@\000\000\000\000\000\000#@ffffff(@\315\314\314\314\314\314\"@\232\231\231\231\231\231%@\315\314\314\314\314\314&@\232\231\231\231\231\231$@ffffff\'@\315\314\314\314\314\314!@\232\231\231\231\231\231%@333333%@333333\'@333333\"@333333)@ffffff\"@\315\314\314\314\314\314\"@\000\000\000\000\000\000(@ffffff)@\232\231\231\231\231\231&@333333%@\000\000\000\000\000\000#@ffffff#@\000\000\000\000\000\000\"@\000\000\000\000\000\000\'@ffffff\"@ffffff!@\000\000\000\000\000\000\"@ffffff!@333333#@ffffff$@333333&@\232\231\231\231\231\231&@\000\000\000\000\000\000#@333333)@\315\314\314\314\314\314(@\315\314\314\314\314\314\"@\315\314\314\314\314\314\"@ffffff&@ffffff%@ffffff$@333333!@\315\314\314\314\314\314#@\232\231\231\231\231\231#@\232\231\231\231\231\231%@\232\231\231\231\231\231!@\315\314\314\314\314\314)@\000\000\000\000\000\000)@\232\231\231\231\231\231#@\232\231\231\231\231\231#@333333)@\000\000\000\000\000\000(@\000\000\000\000\000\000)@\000\000\000\000\000\000#@333333$@ffffff&@\000\000\000\000\000\000#@\315\314\314\314\314\314$@333333\"@\315\314\314\314\314\314)@\000\000\000\000\000\000&@333333)@\315\314\314\314\314\314\"@\232\231\231\231\231\231\"@\000\000\000\000\000\000\"@ffffff$@\000\000\000\000\000\000$@333333#@\315\314\314\314\314\314!@\000\000\000\000\000\000%@\000\000\000\000\000\000$@\000\000\000\000\000\000)@333333!@2DDDDD\'@\000\000\000\000\000\000#@333333#@\315\314\314\314\314\314\"@\315\314\314\314\314\314$@\232\231\231\231\231\231%@\000\000\000\000\000\000$@\000\000\000\000\000\000%@\000\000\000\000\000\000&@ffffff$@\000\000\000\000\000\000#@\232\231\231\231\231\231&@\000\000\000\000\000\000\"@\315\314\314\314\314\314*@\315\314\314\314\314\314$@ffffff#@ffffff\'@\232\231\231\231\231\231!@\000\000\000\000\000\000%@\315\314\314\314\314\314&@\315\314\314\314\314\314\"@\315\314\314\314\314\314\"@\315\314\314\314\314\314\"@ffffff)@\232\231\231\231\231\231)@\315\314\314\314\314\314&@333333\'@\000\000\000\000\000\000%@333333&@ffffff!@\000\000\000\000\000\000#@333333#@\232\231\231\231\231\231%@ffffff\'@\232\231\231\231\231\231\"@\315\314\314\314\314\314!@\232\231\231\231\231\231%@\315\314\314\314\314\314\"@ffffff%@\232\231\231\231\231\231\"@ffffff#@\315\314\314\314\314\314$@\315\314\314\314\314\314$@\315\314\314\314\314\314$@\315\314\314\314\314\314!@\000\000\000\000\000\000\"@333333&@\232\231\231\231\231\231&@\315\314\314\314\314\314\"@\000\000\000\000\000\000$@\000\000\000\000\000\000&@ffffff!@\000\000\000\000\000\000$@\000\000\000\000\000\000\'@\000\000\000\000\000\000\"@ffffff#@\000\000\000\000\000\000$@\000\000\000\000\000\000\"@\000\000\000\000\000\000)@\315\314\314\314\314\314&@ffffff!@ffffff\"@333333$@\000\000\000\000\000\000#@\315\314\314\314\314\314\"@\315\314\314\314\314\314%@\000\000\000\000\000\000)@\315\314\314\314\314\314\"@\000\000\000\000\000\000#@ffffff\"@\232\231\231\231\231\231)@\000\000\000\000\000\000%@\000\000\000\000\000\000(@\315\314\314\314\314\314!@ffffff$@ffffff\"@ffffff&@\000\000\000\000\000\000%@ffffff#@\000\000\000\000\000\000&@ffffff\"@\000\000\000\000\000\000%@\315\314\314\314\314\314%@ffffff%@\000\000\000\000\000\000$@\232\231\231\231\231\231\'@ffffff\"@\232\231\231\231\231\231!@\315\314\314\314\314\314+@\000\000\000\000\000\000(@\315\314\314\314\314\314\"@\232\231\231\231\231\231#@ffffff&@\315\314\314\314\314\314%@\000\000\000\000\000\000&@\232\231\231\231\231\231&@\232\231\231\231\231\231$@\232\231\231\231\231\231\"@\232\231\231\231\231\231&@\232\231\231\231\231\231%@ffffff#@\315\314\314\314\314\314\"@\232\231\231\231\231\231#@\232\231\231\231\231\231#@ffffff%@333333%@ffffff&@333333#@\232\231\231\231\231\231#@\232\231\231\231\231\231)@\000\000\000\000\000\000$@333333!@\232\231\231\231\231\231$@\000\000\000\000\000\000+@333333\"@\000\000\000\000\000\000%@2DDDDD$@ffffff!@\000\000\000\000\000\000#@ffffff(@\315\314\314\314\314\314$@\000\000\000\000\000\000\"@\315\314\314\314\314\314\"@\000\000\000\000\000\000\'@\315\314\314\314\314\314\"@ffffff#@\315\314\314\314\314\314$@333333\"@\232\231\231\231\231\231#@\232\231\231\231\231\231%@ffffff&@\315\314\314\314\314\314*@ffffff\'@ffffff!@\232\231\231\231\231\231\"@\315\314\314\314\314\314%@\232\231\231\231\231\031#@\232\231\231\231\231\231!@ffffff(@\000\000\000\000\000\000\"@\315\314\314\314\314\314$@\315\314\314\314\314\314!@333333#@\000\000\000\000\000\000+@\000\000\000\000\000\000#@\315\314\314\314\314\314\"@\000\000\000\000\000\000$@\000\000\000\000\000\000*@\000\000\000\000\000\000$@\232\231\231\231\231\231#@\315\314\314\314\314\314(@\232\231\231\231\231\231$@\000\000\000\000\000\000%@ffffff+@333333\"@\232\231\231\231\231\231%@ffffff\"@\315\314\314\314\314\314*@333333$@\315\314\314\314\314\314%@\000\000\000\000\000\000,@\000\000\000\000\000\000(@\000\000\000\000\000\000$@\000\000\000\000\000\000%@333333$@\315\314\314\314\314\314\"@\315\314\314\314\314\314$@ffffff\"@\232\231\231\231\231\231#@\315\314\314\314\314\314&@\315\314\314\314\314\314$@ffffff#@\232\231\231\231\231\231\'@333333%@333333)@\232\231\231\231\231\231#@\315\314\314\314\314\314)@\232\231\231\231\231\231(@333333)@\000\000\000\000\000\000\"@\315\314\314\314\314\314*@\315\314\314\314\314\314%@\232\231\231\231\231\231$@\000\000\000\000\000\000#@ffffff#@\001\357\356\356\356\356%@\232\231\231\231\231\231#@333333#@\000\000\000\000\000\000&@\315\314\314\314\314\314$@\315\314\314\314\314\314$@\000\000\000\000\000\000#@\315\314\314\314\314\314%@\232\231\231\231\231\231!@\232\231\231\231\231\231$@\315\314\314\314\314\314\"@\000\000\000\000\000\000*@ffffff!@ffffff\"@333333\"@\000\000\000\000\000\000$@\000\000\000\000\000\000)@\000\000\000\000\000\000&@\315\314\314\314\314\314!@\000\000\000\000\000\000\"@\232\231\231\231\231\231!@\000\000\000\000\000\000$@\000\000\000\000\000\000(@333333\"@ffffff#@333333&@333333)@\232\231\231\231\231\231\'@\315\314\314\314\314\314#@\315\314\314\314\314\314$@\315\314\314\314\314\314%@ffffff\"@\232\231\231\231\231\231&@\315\314\314\314\314\314\"@\232\231\231\231\231\231%@\315\314\314\314\314\314\"@\232\231\231\231\231\231#@\000\000\000\000\000\000#@333333$@\315\314\314\314\314\314\"@333333%@\232\231\231\231\231\231\'@\000\000\000\000\000\000%@\232\231\231\231\231\231\"@333333\"@333333&@ffffff%@ffffff!@ffffff\"@\232\231\231\231\231\231%@\232\231\231\231\231\231$@\000\000\000\000\000\000)@\232\231\231\231\231\231#@\315\314\314\314\314\314%@ffffff!@\000\000\000\000\000\000$@\232\231\231\231\231\231&@333333#@333333\'@\000\000\000\000\000\000)@ffffff\"@\232\231\231\231\231\231\'@\000\000\000\000\000\000%@\000\000\000\000\000\000$@\000\000\000\000\000\000&@\000\000\000\000\000\000#@\232\231\231\231\231\231\'@\232\231\231\231\231\231%@\315\314\314\314\314\314&@\000\000\000\000\000\000#@\315\314\314\314\314\314\"@\315\314\314\314\314\314\'@\000\000\000\000\000\000%@\315\314\314\314\314\314&@ffffff$@\000\000\000\000\000\000&@\000\000\000\000\000\000$@ffffff\"@\232\231\231\231\231\231!@\315\314\314\314\314\314\"@\000\000\000\000\000\000(@333333)@\232\231\231\231\231\231&@\000\000\000\000\000\000$@\232\231\231\231\231\231\"@\315\314\314\314\314\314\'@\315\314\314\314\314\314\"@\315\314\314\314\314\314%@\315\314\314\314\314\314$@\000\000\000\000\000\000)@\315\314\314\314\314\314\"@ffffff(@\000\000\000\000\000\000#@\315\314\314\314\314\314#@\315\314\314\314\314\314%@ffffff!@333333\"@\000\000\000\000\000\000#@\000\000\000\000\000\000\"@\315\314\314\314\314\314\'@ffffff\"@ffffff\'@ffffff\"@\000\000\000\000\000\000#@\232\231\231\231\231\231%@333333#@333333%@ffffff!@\232\231\231\231\231\231%@\232\231\231\231\231\231#@\000\000\000\000\000\000\"@\000\000\000\000\000\000)@\232\231\231\231\231\231#@\000\000\000\000\000\000#@\000\000\000\000\000\000)@ffffff\"@\315\314\314\314\314\314(@333333\"@333333%@\315\314\314\314\314\314$@ffffff%@\315\314\314\314\314\314\"@333333#@333333$@\000\000\000\000\000\000#@ffffff%@ffffff\"@\315\314\314\314\314\314)@ffffff&@\232\231\231\231\231\231)@ffffff#@\232\231\231\231\231\231\"@\315\314\314\314\314\314\"@\000\000\000\000\000\000&@ffffff(@\000\000\000\000\000\000%@\315\314\314\314\314\314$@\000\000\000\000\000\000*@ffffff$@\000\000\000\000\000\000&@\232\231\231\231\231\231!@ffffff!@\315\314\314\314\314\314$@\000\000\000\000\000\000+@\315\314\314\314\314\314%@\232\231\231\231\231\231(@\315\314\314\314\314\314&@\232\231\231\231\231\231\"@\232\231\231\231\231\231(@333333\"@\315\314\314\314\314\314#@333333#@\000\000\000\000\000\000%@ffffff\"@333333)@\000\000\000\000\000\000\"@333333\'@\315\314\314\314\314\314#@\232\231\231\231\231\231\"@ffffff%@ffffff\"@\315\314\314\314\314\314!@\232\231\231\231\231\231\"@\232\231\231\231\231\231#@\315\314\314\314\314\314$@\232\231\231\231\231\231\'@333333(@\000\000\000\000\000\000$@\232\231\231\231\231\231#@\000\000\000\000\000\000#@\315\314\314\314\314\314\"@\315\314\314\314\314\314#@\000\000\000\000\000\000\"@333333*@ffffff\'@\315\314\314\314\314\314%@\315\314\314\314\314\314#@333333%@ffffff$@\232\231\231\231\231\231%@333333\"@\315\314\314\314\314L(@\000\000\000\000\000\000\"@\000\000\000\000\000\000$@\315\314\314\314\314\314(@333333#@\000\000\000\000\000\000%@333333\"@\315\314\314\314\314\314*@ffffff#@\000\000\000\000\000\000$@\000\000\000\000\000\000&@\000\000\000\000\000\000%@ffffff%@\000\000\000\000\000\000%@\000\000\000\000\000\000(@\000\000\000\000\000\000#@\232\231\231\231\231\231\"@\315\314\314\314\314\314%@\000\000\000\000\000\000$@\000\000\000\000\000\000)@333333$@333333)@333333%@ffffff\"@\000\000\000\000\000\000%@\232\231\231\231\231\231\"@\232\231\231\231\231\231$@\000\000\000\000\000\000\'@\000\000\000\000\000\000(@333333\'@\232\231\231\231\231\231!@\315\314\314\314\314\314\'@\232\231\231\231\231\231\"@\315\314\314\314\314\314%@333333&@\000\000\000\000\000\000\'@333333#@ffffff\"@\232\231\231\231\231\231\"@\232\231\231\231\231\231*@\000\000\000\000\000\000&@\232\231\231\231\231\231#@333333&@\232\231\231\231\231\231\"@ffffff#@ffffff\"@333333(@\232\231\231\231\231\231$@\232\231\231\231\231\231\'@\000\000\000\000\000\000#@ffffff!@\232\231\231\231\231\231#@\000\000\000\000\000\000,@\000\000\000\000\000\000\'@\315\314\314\314\314\314#@\315\314\314\314\314\314\"@\315\314\314\314\314\314)@\232\231\231\231\231\231\'@\232\231\231\231\231\231$@\232\231\231\231\231\231(@\315\314\314\314\314\314\"@\315\314\314\314\314\314&@\000\000\000\000\000\000(@\232\231\231\231\231\231#@\232\231\231\231\231\231$@\315\314\314\314\314\314(@\315\314\314\314\314\314(@\000\000\000\000\000\000)@333333)@\000\000\000\000\000\000)@\232\231\231\231\231\231)@ffffff%@\315\314\314\314\314\314$@\232\231\231\231\231\231&@\315\314\314\314\314L\'@\000\000\000\000\000\000\"@ffffff$@\232\231\231\231\231\231)@\232\231\231\231\231\231$@\000\000\000\000\000\000&@\000\000\000\000\000\000*@\232\231\231\231\231\231$@\000\000\000\000\000\000\"@\000\000\000\000\000\000&@\000\000\000\000\000\000\"@\000\000\000\000\000\000\"@\315\314\314\314\314\314\"@\232\231\231\231\231\231#@333333#@ffffff#@ffffff\"@333333)@ffffff\"@333333$@\315\314\314\314\314\314$@\232\231\231\231\231\231$@\000\000\000\000\000\000(@ffffff%@\315\314\314\314\314\314%@\000\000\000\000\000\000\'@333333(@\000\000\000\000\000\000(@\000\000\000\000\000\000#@\315\314\314\314\314\314&@\232\231\231\231\231\231%@\232\231\231\231\231\231\"@333333$@\232\231\231\231\231\231$@ffffff#@ffffff)@\315\314\314\314\314\314!@333333\'@\232\231\231\231\231\231\'@\000\000\000\000\000\000$@\000\000\000\000\000\000\'@ffffff&@\232\231\231\231\231\231\"@\232\231\231\231\231\231\"@ffffff\"@\000\000\000\000\000\000$@\000\000\000\000\000\000+@\315\314\314\314\314\314%@333333$@\232\231\231\231\231\231%@\315\314\314\314\314\314(@\000\000\000\000\000\000%@\315\314\314\314\314\314$@\000\000\000\000\000\000&@\000\000\000\000\000\000(@\000\000\000\000\000\000+@\315\314\314\314\314L$@ffffff#@ffffff%@ffffff(@\000\000\000\000\000\000\'@\232\231\231\231\231\231!@\315\314\314\314\314\314(@ffffff(@\000\000\000\000\000\000#@\000\000\000\000\000\000$@ffffff!@\000\000\000\000\000\000$@333333&@\000\000\000\000\000\000$@333333%@ffffff(@333333)@\000\000\000\000\000\000#@\315\314\314\314\314\314%@ffffff$@\232\231\231\231\231\231%@\000\000\000\000\000\000,@333333&@333333\"@ffffff\"@\000\000\000\000\000\000(@\315\314\314\314\314\314#@\000\000\000\000\000\000\"@\232\231\231\231\231\231%@ffffff\"@\232\231\231\231\231\231\"@\315\314\314\314\314\314(@\000\000\000\000\000\000#@ffffff%@333333#@\000\000\000\000\000\000)@\000\000\000\000\000\000$@\315\314\314\314\314\314(@\315\314\314\314\314\314\"@\000\000\000\000\000\000$@\232\231\231\231\231\231%@ffffff\"@\315\314\314\314\314\314&@333333(@ffffff)@\000\000\000\000\000\000\'@ffffff!@\232\231\231\231\231\231%@\232\231\231\231\231\231$@333333\"@\315\314\314\314\314\314$@\000\000\000\000\000\000#@ffffff#@333333*@\000\000\000\000\000\000\"@333333%@ffffff\"@333333$@\232\231\231\231\231\231$@\315\314\314\314\314\314&@\000\000\000\000\000\000$@333333$@333333#@\315\314\314\314\314\314\"@ffffff(@ffffff%@\315\314\314\314\314\314$@\232\231\231\231\231\231%@ffffff\"@333333\'@\232\231\231\231\231\231\'@\315\314\314\314\314\314!@\000\000\000\000\000\000\'@333333\"@\232\231\231\231\231\031&@\315\314\314\314\314\314&@\000\000\000\000\000\000&@ffffff&@\315\314\314\314\314\314\'@\000\000\000\000\000\000#@ffffff#@\000\000\000\000\000\000&@\232\231\231\231\231\231\'@\315\314\314\314\314\314$@\232\231\231\231\231\231(@ffffff&@\315\314\314\314\314\314%@\315\314\314\314\314\314\"@\232\231\231\231\231\231#@\232\231\231\231\231\231#@ffffff\'@ffffff&@\000\000\000\000\000\000&@\232\231\231\231\231\231#@\000\000\000\000\000\000#@333333\"@ffffff%@333333%@ffffff\"@333333\"@333333$@\000\000\000\000\000\000$@ffffff$@\000\000\000\000\000\000\'@333333\"@\000\000\000\000\000\000\'@\000\000\000\000\000\000)@ffffff\"@\232\231\231\231\231\231(@\232\231\231\231\231\231\'@\232\231\231\231\231\031+@\232\231\231\231\231\231%@\000\000\000\000\000\000#@ffffff&@\232\231\231\231\231\231#@333333\"@\000\000\000\000\000\000#@\315\314\314\314\314\314!@\232\231\231\231\231\231\"@333333$@\315\314\314\314\314\314\"@\315\314\314\314\314\314$@\315\314\314\314\314\314#@333333)@333333#@\000\000\000\000\000\000)@333333#@\000\000\000\000\000\000*@333333#@\000\000\000\000\000\000$@ffffff\'@\232\231\231\231\231\231%@ffffff\"@333333\'@333333#@333333$@\232\231\231\231\231\231!@ffffff#@ffffff\"@ffffff\"@\232\231\231\231\231\231\"@\232\231\231\231\231\231%@\000\000\000\000\000\000)@ffffff*@\315\314\314\314\314\314\"@333333$@\232\231\231\231\231\231(@\315\314\314\314\314\314(@333333\"@ffffff(@\000\000\000\000\000\000$@333333#@\232\231\231\231\231\231%@ffffff\"@\315\314\314\314\314\314%@ffffff\"@333333%@\315\314\314\314\314\314#@\000\000\000\000\000\000&@\000\000\000\000\000\000\"@\000\000\000\000\000\000*@\232\231\231\231\231\231\"@\315\314\314\314\314\314\'@\000\000\000\000\000\000&@333333$@\315\314\314\314\314\314(@\232\231\231\231\231\231!@333333\'@ffffff\"@\232\231\231\231\231\231!@\315\314\314\314\314\314\"@333333$@333333)@ffffff&@\232\231\231\231\231\231(@\000\000\000\000\000\000#@\232\231\231\231\231\231&@ffffff\'@\315\314\314\314\314\314(@\000\000\000\000\000\000#@\000\000\000\000\000\000)@\315\314\314\314\314\314$@333333$@\232\231\231\231\231\231\"@\315\314\314\314\314\314%@\000\000\000\000\000\000$@\315\314\314\314\314\314\"@\315\314\314\314\314\314!@333333&@\000\000\000\000\000\000)@\315\314\314\314\314\314!@333333\"@\000\000\000\000\000\000#@\000\000\000\000\000\000%@\232\231\231\231\231\231\'@\232\231\231\231\231\231\"@ffffff$@ffffff$@\000\000\000\000\000\000)@333333#@\000\000\000\000\000\000$@ffffff\"@\315\314\314\314\314\314!@\000\000\000\000\000\000#@333333%@333333\"@\000\000\000\000\000\000%@\000\000\000\000\000\000)@\315\314\314\314\314\314&@\315\314\314\314\314\314$@333333&@333333&@\000\000\000\000\000\000\'@\232\231\231\231\231\231&@\000\000\000\000\000\000)@\315\314\314\314\314\314\'@\232\231\231\231\231\231\'@ffffff(@\232\231\231\231\231\231\"@ffffff(@ffffff\"@\232\231\231\231\231\231\"@333333\'@\000\000\000\000\000\000&@333333&@\000\000\000\000\000\000\'@\315\314\314\314\314\314#@\232\231\231\231\231\231%@\000\000\000\000\000\000\"@\232\231\231\231\231\231$@\315\314\314\314\314\314&@333333&@333333#@\000\000\000\000\000\000&@\000\000\000\000\000\000\'@\315\314\314\314\314\314$@ffffff\'@\000\000\000\000\000\000%@ffffff$@ffffff#@\000\000\000\000\000\000\"@\000\000\000\000\000\000\"@\315\314\314\314\314\314\"@\000\000\000\000\000\000$@\000\000\000\000\000\000)@ffffff\"@333333)@333333&@\000\000\000\000\000\000\"@\315\314\314\314\314\314&@ffffff\'@\232\231\231\231\231\231%@\000\000\000\000\000\200\'@\315\314\314\314\314\314%@333333#@\000\000\000\000\000\000$@\000\000\000\000\000\000&@\000\000\000\000\000\000\'@\000\000\000\000\000\000#@333333%@\232\231\231\231\231\231%@\000\000\000\000\000\000$@ffffff)@\000\000\000\000\000\000\'@\315\314\314\314\314\314$@\315\314\314\314\314\314$@333333%@ffffff#@ffffff\"@333333$@\232\231\231\231\231\231$@ffffff&@\000\000\000\000\000\000%@\232\231\231\231\231\231$@\315\314\314\314\314\314\'@\315\314\314\314\314\314#@\315\314\314\314\314\314!@ffffff#@\232\231\231\231\231\231\"@\000\000\000\000\000\000#@333333+@ffffff&@\232\231\231\231\231\231)@333333$@\000\000\000\000\000\000\"@\000\000\000\000\000\000#@\000\000\000\000\000\000#@333333%@\000\000\000\000\000\000%@\232\231\231\231\231\231&@\000\000\000\000\000\000$@\000\000\000\000\000\000\"@\000\000\000\000\000\000#@\315\314\314\314\314\314\"@\232\231\231\231\231\231!@ffffff%@\000\000\000\000\000\000%@\315\314\314\314\314\314!@ffffff\"@ffffff\"@\000\000\000\000\000\000\"@\315\314\314\314\314\314\"@ffffff&@\232\231\231\231\231\231*@\315\314\314\314\314\314\"@\232\231\231\231\231\231\"@\000\000\000\000\000\000%@333333%@\000\000\000\000\000\000\"@\000\000\000\000\000\000#@\000\000\000\000\000\000\"@\232\231\231\231\231\231#@ffffff$@\000\000\000\000\000\000&@\232\231\231\231\231\231\"@\232\231\231\231\231\231$@ffffff\"@\315\314\314\314\314\314#@\000\000\000\000\000\000&@\315\314\314\314\314\314\"@\000\000\000\000\000\000(@ffffff&@\000\000\000\000\000\000%@\000\000\000\000\000\000#@ffffff)@ffffff\"@\232\231\231\231\231\231&@\000\000\000\000\000\000&@\000\000\000\000\000\000%@333333&@\000\000\000\000\000\000)@ffffff(@\315\314\314\314\314\314\"@333333#@\000\000\000\000\000\000\"@\232\231\231\231\231\231&@\315\314\314\314\314\314(@\000\000\000\000\000\000&@333333#@\000\000\000\000\000\000&@\315\314\314\314\314\314*@\315\314\314\314\314\314\'@333333)@\315\314\314\314\314\314(@\315\314\314\314\314\314#@\232\231\231\231\231\231#@\000\000\000\000\000\000#@\315\314\314\314\314\314\"@\315\314\314\314\314\314\'@\232\231\231\231\231\231(@\000\000\000\000\000\000\'@\000\000\000\000\000\000\"@ffffff\'@ffffff%@ffffff\"@333333%@\315\314\314\314\314\314(@ffffff&@\000\000\000\000\000\000#@ffffff%@333333%@ffffff#@\232\231\231\231\231\031%@ffffff&@ffffff#@\232\231\231\231\231\231!@\315\314\314\314\314\314#@\000\000\000\000\000\000#@\000\000\000\000\000\000#@\315\314\314\314\314\314$@ffffff\"@ffffff\"@\315\314\314\314\314\314&@\315\314\314\314\314\314%@ffffff!@\315\314\314\314\314\314#@ffffff&@\000\000\000\000\000\000#@\232\231\231\231\231\231$@\232\231\231\231\231\231&@\315\314\314\314\314\314#@ffffff#@ffffff!@\315\314\314\314\314\314$@ffffff%@\232\231\231\231\231\231$@\315\314\314\314\314\314%@\000\000\000\000\000\000$@ffffff%@\315\314\314\314\314\314!@\232\231\231\231\231\231(@333333\"@333333\"@\232\231\231\231\231\231&@\232\231\231\231\231\231\"@ffffff)@ffffff\"@ffffff\"@333333$@\315\314\314\314\314\314&@\315\314\314\314\314\314\'@\232\231\231\231\231\231#@ffffff\'@\315\314\314\314\314\314 @\000\000\000\000\000\000&@\315\314\314\314\314\314\"@\315\314\314\314\314\314&@\315\314\314\314\314\314&@\000\000\000\000\000\000\"@\315\314\314\314\314\314\'@ffffff#@\232\231\231\231\231\231\"@ffffff&@333333#@\000\000\000\000\000\000)@ffffff&@333333$@ffffff&@\315\314\314\314\314\314\"@ffffff%@\000\000\000\000\000\000\'@ffffff$@\000\000\000\000\000\000)@\000\000\000\000\000\000#@333333\"@\232\231\231\231\231\231%@333333)@\315\314\314\314\314\314&@333333)@\000\000\000\000\000\000%@\232\231\231\231\231\231$@ffffff$@333333%@\000\000\000\000\000\000#@ffffff(@\315\314\314\314\314\314!@\315\314\314\314\314\314\"@\000\000\000\000\000\000(@ffffff!@333333\"@ffffff\'@\315\314\314\314\314\314!@ffffff#@333333(@\315\314\314\314\314\314\"@ffffff%@ffffff\'@\000\000\000\000\000\000*@ffffff%@ffffff$@333333#@ffffff$@\232\231\231\231\231\231\"@\315\314\314\314\314\314\"@\232\231\231\231\231\231#@\315\314\314\314\314\314#@\000\000\000\000\000\000#@\315\314\314\314\314\314$@\315\314\314\314\314\314!@333333&@\315\314\314\314\314\314\"@\315\314\314\314\314\314\"@\232\231\231\231\231\231#@333333&@333333%@333333$@ffffff&@ffffff$@\232\231\231\231\231\231\'@\000\000\000\000\000\000$@\000\000\000\000\000\000#@\315\314\314\314\314\314\"@ffffff)@\232\231\231\231\231\231%@ffffff$@\000\000\000\000\000\000$@\000\000\000\000\000\000$@\315\314\314\314\314\314#@\000\000\000\000\000\000\'@\315\314\314\314\314\314\"@ffffff*@333333\"@\232\231\231\231\231\231$@\232\231\231\231\231\231$@\315\314\314\314\314\314%@\000\000\000\000\000\000&@333333%@\000\000\000\000\000\000%@ffffff#@\000\000\000\000\000\000%@\000\000\000\000\000\000$@\000\000\000\000\000\000$@ffffff!@\000\000\000\000\000\000$@\232\231\231\231\231\231&@ffffff\'@2DDDDD$@ffffff#@\000\000\000\000\000\000$@ffffff%@ffffff*@ffffff&@333333#@\232\231\231\231\231\231\"@333333#@\315\314\314\314\314\314*@\232\231\231\231\231\231%@ffffff#@\315\314\314\314\314\314\"@\315\314\314\314\314\314$@\315\314\314\314\314\314+@ffffff+@ffffff\'@\232\231\231\231\231\231%@\315\314\314\314\314\314)@\000\000\000\000\000\000#@333333%@\000\000\000\000\000\000#@\315\314\314\314\314\314$@\000\000\000\000\000\000#@ffffff\"@ffffff#@ffffff&@\000\000\000\000\000\000&@\000\000\000\000\000\000$@\315\314\314\314\314\314%@\000\000\000\000\000\000#@\232\231\231\231\231\231\"@\315\314\314\314\314\314\"@\000\000\000\000\000\000%@333333(@ffffff#@\000\000\000\000\000\000\'@\000\000\000\000\000\000\"@\000\000\000\000\000\000&@\000\000\000\000\000\000#@\000\000\000\000\000\000$@\232\231\231\231\231\231(@\315\314\314\314\314\314\'@\341z\024\256G\341\'@ffffff\"@333333\'@\000\000\000\000\000\000#@ffffff+@\000\000\000\000\000\000#@\000\000\000\000\000\000$@ffffff(@\315\314\314\314\314\314\'@\000\000\000\000\000\000\'@\000\000\000\000\000\000&@\315\314\314\314\314\314%@\000\000\000\000\000\000*@\232\231\231\231\231\231#@\315\314\314\314\314\314&@\000\000\000\000\000\000%@\232\231\231\231\231\231\"@\000\000\000\000\000\000#@333333\"@\000\000\000\000\000\000%@\232\231\231\231\231\231%@333333(@\000\000\000\000\000\000#@\232\231\231\231\231\231\'@\000\000\000\000\000\000&@\000\000\000\000\000\000(@333333&@\000\000\000\000\000\000$@\232\231\231\231\231\231#@\232\231\231\231\231\231#@\232\231\231\231\231\231!@\315\314\314\314\314\314$@\232\231\231\231\231\231(@\000\000\000\000\000\000#@333333\"@\232\231\231\231\231\231!@ffffff(@\315\314\314\314\314\314)@\000\000\000\000\000\000&@\232\231\231\231\231\231!@\315\314\314\314\314\314\"@ffffff)@\000\000\000\000\000\000&@\315\314\314\314\314\314$@\232\231\231\231\231\231!@\000\000\000\000\000\000#@333333#@\000\000\000\000\000\000)@333333\"@\000\000\000\000\000\000)@\232\231\231\231\231\231&@\000\000\000\000\000\000\"@ffffff#@\315\314\314\314\314\314\"@333333$@\232\231\231\231\231\231#@333333\"@\232\231\231\231\231\231\"@\232\231\231\231\231\231&@\315\314\314\314\314\314&@\232\231\231\231\231\231\'@\000\000\000\000\000\000(@\000\000\000\000\000\000#@\315\314\314\314\314\314\"@\315\314\314\314\314\314$@\315\314\314\314\314\314\"@\000\000\000\000\000\000&@\232\231\231\231\231\231!@ffffff\"@\232\231\231\231\231\231%@\000\000\000\000\000\000#@\315\314\314\314\314\314\"@\232\231\231\231\231\231*@\315\314\314\314\314\314!@\000\000\000\000\000\000$@\232\231\231\231\231\231\'@ffffff&@\232\231\231\231\231\231#@\315\314\314\314\314\314)@\315\314\314\314\314\314#@333333)@\000\000\000\000\000\000&@\000\000\000\000\000\000(@\232\231\231\231\231\231(@333333(@\315\314\314\314\314\314)@ffffff(@333333#@333333#@333333#@ffffff#@\232\231\231\231\231\231&@\315\314\314\314\314\314%@333333)@\000\000\000\000\000\000#@\315\314\314\314\314\314\"@ffffff)@33333\263\'@\315\314\314\314\314\314\"@\315\314\314\314\314\314%@\232\231\231\231\231\231\"@ffffff$@ffffff&@\315\314\314\314\314\314\"@\232\231\231\231\231\231\"@\000\000\000\000\000\000&@333333&@\000\000\000\000\000\000%@333333$@\315\314\314\314\314\314&@\000\000\000\000\000\000(@\232\231\231\231\231\231#@\000\000\000\000\000\000)@\315\314\314\314\314\314\"@\000\000\000\000\000\000&@ffffff\'@\232\231\231\231\231\231%@\315\314\314\314\314\314(@\232\231\231\231\231\231&@\000\000\000\000\000\000%@\000\000\000\000\000\000#@\000\000\000\000\000\000,@ffffff,@\232\231\231\231\231\231%@\315\314\314\314\314\314%@333333\'@\315\314\314\314\314\314\"@\232\231\231\231\231\231&@ffffff%@ffffff\'@\315\314\314\314\314\314$@\315\314\314\314\314\314$@\232\231\231\231\231\231\"@\000\000\000\000\000\000\"@\232\231\231\231\231\231\"@\000\000\000\000\000\000#@\000\000\000\000\000\000&@\315\314\314\314\314\314\"@\000\000\000\000\000\000%@\000\000\000\000\000\000\"@ffffff!@\232\231\231\231\231\231#@\000\000\000\000\000\000\"@ffffff\"@\315\314\314\314\314\314%@\000\000\000\000\000\000!@\000\000\000\000\000\000%@\000\000\000\000\000\000(@333333#@\000\000\000\000\000\000#@\232\231\231\231\231\231!@ffffff\"@\232\231\231\231\231\231#@ffffff$@\315\314\314\314\314\314!@\000\000\000\000\000\000&@\315\314\314\314\314\314)@ffffff$@333333\"@\000\000\000\000\000\000%@\232\231\231\231\231\231!@\000\000\000\000\000\000&@333333(@\232\231\231\231\231\231(@ffffff\'@333333#@\315\314\314\314\314\314\"@\232\231\231\231\231\231\"@\232\231\231\231\231\231\"@ffffff\"@\232\231\231\231\231\231\"@333333&@333333%@\315\314\314\314\314\314\"@\000\000\000\000\000\000\"@\315\314\314\314\314\314\'@\315\314\314\314\314\314&@\315\314\314\314\314\314#@\315\314\314\314\314\314$@\232\231\231\231\231\231#@\000\000\000\000\000\000$@\000\000\000\000\000\000)@\315\314\314\314\314\314\'@ffffff(@\315\314\314\314\314\314#@ffffff#@ffffff%@\232\231\231\231\231\231\"@ffffff$@\000\000\000\000\000\000%@333333*@333333)@\000\000\000\000\000\000(@\315\314\314\314\314\314!@333333#@\315\314\314\314\314\314&@\000\000\000\000\000\000&@\232\231\231\231\231\231\"@\315\314\314\314\314\314#@\000\000\000\000\000\000%@\000\000\000\000\000\000#@333333#@\000\000\000\000\000\000%@\000\000\000\000\000\000%@\315\314\314\314\314\314)@333333(@333333\"@\000\000\000\000\000\000*@333333\"@\000\000\000\000\000\000#@333333(@ffffff!@\232\231\231\231\231\231\'@ffffff%@\000\000\000\000\000\000(@\000\000\000\000\000\000%@\232\231\231\231\231\231\"@\315\314\314\314\314\314!@\000\000\000\000\000\000%@\000\000\000\000\000\000%@ffffff&@\001\357\356\356\356\356%@\315\314\314\314\314\314!@333333(@\000\000\000\000\000\000+@\000\000\000\000\000\000&@ffffff!@\000\000\000\000\000\000(@\232\231\231\231\231\231&@ffffff$@\000\000\000\000\000\000(@\232\231\231\231\231\231\"@\315\314\314\314\314\314#@333333$@\000\000\000\000\000\000\'@333333#@\000\000\000\000\000\000(@333333#@ffffff&@ffffff\"@\000\000\000\000\000\000$@ffffff!@ffffff*@\000\000\000\000\000\000%@ffffff#@333333%@333333\'@\232\231\231\231\231\231#@ffffff\'@\000\000\000\000\000\000%@\232\231\231\231\231\231(@\232\231\231\231\231\231\'@\315\314\314\314\314\314$@ffffff\"@ffffff\"@\232\231\231\231\231\231$@\232\231\231\231\231\231!@\000\000\000\000\000\000$@\000\000\000\000\000\000#@ffffff)@333333$@\315\314\314\314\314\314(@\232\231\231\231\231\231\"@\232\231\231\231\231\231#@\232\231\231\231\231\231\"@\315\314\314\314\314\314\"@ffffff\"@\232\231\231\231\231\231#@333333&@ffffff\"@333333%@333333$@\000\000\000\000\000\000$@\232\231\231\231\231\231#@\000\000\000\000\000\000)@ffffff%@\232\231\231\231\231\231&@\315\314\314\314\314\314(@333333\"@333333)@ffffff\'@\000\000\000\000\000\000\"@333333\"@\000\000\000\000\000\000\"@\315\314\314\314\314\314#@\315\314\314\314\314\314!@ffffff\"@ffffff\"@\232\231\231\231\231\231!@\315\314\314\314\314\314(@\000\000\000\000\000\000$@ffffff\"@ffffff%@\315\314\314\314\314\314$@\315\314\314\314\314\314!@\000\000\000\000\000\000%@ffffff)@ffffff&@\232\231\231\231\231\231%@\000\000\000\000\000\000&@\000\000\000\000\000\000%@\000\000\000\000\000\000#@\000\000\000\000\000\000#@\315\314\314\314\314\314%@ffffff$@\000\000\000\000\000\000#@\316\273\273\273\273\273&@333333(@\232\231\231\231\231\231\"@\315\314\314\314\314\314\'@\232\231\231\231\231\231#@ffffff&@\000\000\000\000\000\000%@ffffff!@\000\000\000\000\000\000+@\000\000\000\000\000\000$@\315\314\314\314\314\314&@ffffff&@\232\231\231\231\231\231%@\232\210\210\210\210\210&@333333)@\000\000\000\000\000\000&@333333\'@333333&@\232\231\231\231\231\231$@\000\000\000\000\000\000$@ffffff\"@\000\000\000\000\000\000*@ffffff)@\232\231\231\231\231\231(@\000\000\000\000\000\000(@\232\231\231\231\231\231(@333333$@\315\314\314\314\314\314$@\315\314\314\314\314\314\'@\000\000\000\000\000\000\'@\315\314\314\314\314\314\"@\315\314\314\314\314\314$@\000\000\000\000\000\000%@\232\231\231\231\231\231$@\232\231\231\231\231\231&@ffffff\"@ffffff!@ffffff)@\000\000\000\000\000\000\"@ffffff&@\315\314\314\314\314\314!@\232\231\231\231\231\231%@ffffff&@\232\231\231\231\231\231#@ffffff#@\000\000\000\000\000\000\"@\000\000\000\000\000\000$@ffffff\"@ffffff\"@ffffff(@ffffff%@\315\314\314\314\314\314%@\232\231\231\231\231\231#@\232\231\231\231\231\231!@\000\000\000\000\000\000\"@\000\000\000\000\000\000\"@\315\314\314\314\314\314(@\315\314\314\314\314\314\"@\000\000\000\000\000\000)@\315\314\314\314\314\314%@333333$@\315\314\314\314\314\314%@333333$@\232\231\231\231\231\231$@\315\314\314\314\314\314&@\315\314\314\314\314\314%@\315\314\314\314\314\314\"@\315\314\314\314\314\314$@ffffff%@333333$@ffffff\"@ffffff#@\000\000\000\000\000\000&@\000\000\000\000\000\000%@\000\000\000\000\000\000\'@\000\000\000\000\000\000#@\315\314\314\314\314\314\'@ffffff$@\315\314\314\314\314\314#@\315\314\314\314\314\314$@ffffff*@\000\000\000\000\000\000\"@ffffff$@333333#@\000\000\000\000\000\000\"@\232\231\231\231\231\231$@\315\314\314\314\314\314%@\232\231\231\231\231\231\"@\315\314\314\314\314\314(@\232\231\231\231\231\231\'@\315\314\314\314\314\314\'@\315\314\314\314\314\314&@\315\314\314\314\314\314(@ffffff(@ffffff%@ffffff)@\000\000\000\000\000\000#@333333\"@\000\000\000\000\000\000%@333333(@ffffff#@ffffff\"@333333\"@\315\314\314\314\314\314\"@\000\000\000\000\000\000$@\000\000\000\000\000\000$@333333#@\315\314\314\314\314\314\'@\232\231\231\231\231\231&@\000\000\000\000\000\000%@\000\000\000\000\000\000+@\000\000\000\000\000\000\"@\232\231\231\231\231\231&@ffffff\"@ffffff\"@\000\000\000\000\000\000$@333333!@\232\231\231\231\231\231%@\315\314\314\314\314\314)@ffffff\"@\232\231\231\231\231\231#@\000\000\000\000\000\000\"@\315\314\314\314\314\314!@\315\314\314\314\314\314$@\000\000\000\000\000\200#@\232\231\231\231\231\231)@\000\000\000\000\000\000%@333333#@\000\000\000\000\000\000,@\000\000\000\000\000\000%@333333\"@\232\231\231\231\231\231%@333333$@\000\000\000\000\000\000\"@\000\000\000\000\000\000(@\232\231\231\231\231\231#@\000\000\000\000\000\000&@333333$@\315\314\314\314\314\314&@\315\314\314\314\314\314!@333333\"@\232\231\231\231\231\231(@\315\314\314\314\314\314%@\000\000\000\000\000\000\"@\315\314\314\314\314\314%@333333\"@\232\231\231\231\231\231#@\315\314\314\314\314\314\"@333333\"@\232\231\231\231\231\231#@\315\314\314\314\314\314$@\315\314\314\314\314\314*@\000\000\000\000\000\000%@333333$@\315\314\314\314\314\314\"@\315\314\314\314\314\314\'@ffffff#@ffffff\"@\232\231\231\231\231\231#@\232\231\231\231\231\231\"@ffffff$@ffffff&@ffffff(@\232\231\231\231\231\231\"@333333#@\232\231\231\231\231\231&@ffffff\"@333333#@\232\231\231\231\231\231#@\232\231\231\231\231\231\"@\232\231\231\231\231\231\'@\315\314\314\314\314\314%@333333\'@\232\231\231\231\231\231%@\000\000\000\000\000\000,@333333%@ffffff%@ffffff\"@\232\231\231\231\231\231%@\315\314\314\314\314\314$@ffffff\'@333333\'@\315\314\314\314\314\314\"@\232\231\231\231\231\231%@\232\231\231\231\231\231\"@\315\314\314\314\314\314%@\000\000\000\000\000\000$@333333)@ffffff\"@333333$@\000\000\000\000\000\000+@333333\'@\267/\226\374b\311)@\000\000\000\000\000\000#@ffffff\'@\000\000\000\000\000\000%@\232\231\231\231\231\231$@\000\000\000\000\000\000#@333333\"@\315\314\314\314\314\314\"@ffffff&@\000\000\000\000\000\000\"@\000\000\000\000\000\000$@\232\231\231\231\231\231#@\315\314\314\314\314\314)@ffffff\"@333333$@333333(@\315\314\314\314\314\314(@\315\314\314\314\314\314#@\232\231\231\231\231\231\"@\000\000\000\000\000\000\"@\232\231\231\231\231\231&@\000\000\000\000\000\000&@\000\000\000\000\000\000$@333333%@\315\314\314\314\314\314%@\315\314\314\314\314\314&@\315\314\314\314\314\314!@\000\000\000\000\000\000%@\232\231\231\231\231\231#@ffffff$@333333)@\232\231\231\231\231\231(@ffffff\"@\315\314\314\314\314\314%@333333#@333333(@\000\000\000\000\000\000*@\000\000\000\000\000\000#@ffffff\"@\000\000\000\000\000\000&@\000\000\000\000\000\000\"@\232\231\231\231\231\231\"@\000\000\000\000\000\000\'@ffffff$@\000\000\000\000\000\000%@\315\314\314\314\314\314\"@333333&@\000\000\000\000\000\000,@333333#@\315\314\314\314\314\314&@\232\231\231\231\231\231!@\232\231\231\231\231\231\"@\232\231\231\231\231\231%@\314\335\335\335\335\335%@\232\231\231\231\231\231&@\232\231\231\231\231\231\'@\232\231\231\231\231\231%@\232\231\231\231\231\231!@\315\314\314\314\314\314\"@ffffff$@ffffff$@\000\000\000\000\000\000#@\232\231\231\231\231\231\"@333333\'@ffffff\"@\315\314\314\314\314\314(@ffffff%@\232\231\231\231\231\231&@ffffff\"@ffffff\'@\000\000\000\000\000\000)@ffffff(@\000\000\000\000\000\000\"@\232\231\231\231\231\231\"@\232\231\231\231\231\231!@ffffff#@\315\314\314\314\314\314\"@\000\000\000\000\000\000)@\315\314\314\314\314\314\"@ffffff!@\000\000\000\000\000\000$@\315\314\314\314\314\314&@\000\000\000\000\000\000#@ffffff$@\315\314\314\314\314\314\"@\232\231\231\231\231\231\"@\315\314\314\314\314\314\"@\000\000\000\000\000\000#@333333$@ffffff\"@\232\231\231\231\231\231!@333333(@ffffff\"@ffffff)@333333#@\232\231\231\231\231\231%@ffffff%@333333%@\315\314\314\314\314\314\"@\232\231\231\231\231\231%@333333$@\000\000\000\000\000\000\'@ffffff\"@\000\000\000\000\000\000&@333333\"@\315\314\314\314\314\314#@333333&@\232\231\231\231\231\231#@\000\000\000\000\000\000$@\232\231\231\231\231\031,@\000\000\000\000\000\000)@\000\000\000\000\000\000&@ffffff\"@\232\231\231\231\231\231#@ffffff\'@\315\314\314\314\314\314&@\232\231\231\231\231\231#@\000\000\000\000\000\000\"@ffffff$@\315\314\314\314\314\314&@\000\000\000\000\000\000&@333333$@\315\314\314\314\314\314!@ffffff\"@\232\231\231\231\231\231%@ffffff$@\315\314\314\314\314\314$@\315\314\314\314\314\314)@333333$@\315\314\314\314\314\314%@ffffff*@333333\"@333333\"@\232\231\231\231\231\231\'@\000\000\000\000\000\000#@\000\000\000\000\000\000#@ffffff&@333333%@\232\231\231\231\231\231%@\000\000\000\000\000\000\"@\000\000\000\000\000\000#@\315\314\314\314\314\314\"@ffffff#@ffffff(@\232\231\231\231\231\231(@333333\"@333333%@\315\314\314\314\314\314\"@\000\000\000\000\000\000\'@\000\000\000\000\000\000#@\232\231\231\231\231\231#@\315\314\314\314\314\314\"@333333\"@\315\314\314\314\314\314%@ffffff$@\000\000\000\000\000\000\'@\000\000\000\000\000\000$@\000\000\000\000\000\000&@\232\231\231\231\231\231)@\315\314\314\314\314\314#@\315\314\314\314\314\314%@\000\000\000\000\000\000%@\315\314\314\314\314\314%@\232\231\231\231\231\231#@\232\231\231\231\231\231\"@\232\231\231\231\231\231\'@\315\314\314\314\314\314)@\232\231\231\231\231\231\'@ffffff#@\232\231\231\231\231\231\"@\315\314\314\314\314\314$@\000\000\000\000\000\000#@\000\000\000\000\000\000%@ffffff#@\000\000\000\000\000\000#@\315\314\314\314\314\314%@ffffff\"@\000\000\000\000\000\000(@\315\314\314\314\314\314\"@\315\314\314\314\314\314$@333333$@ffffff(@ffffff\"@\232\231\231\231\231\231$@\000\000\000\000\000\000$@\315\314\314\314\314\314&@333333#@ffffff%@\315\314\314\314\314\314!@333333#@\315\314\314\314\314\314\"@ffffff\"@\000\000\000\000\000\000#@\315\314\314\314\314\314$@\000\000\000\000\000\000#@\000\000\000\000\000\000&@333333)@\232\231\231\231\231\231)@333333\"@\232\231\231\231\231\231%@\000\000\000\000\000\000\'@\000\000\000\000\000\000&@\000\000\000\000\000\000\"@ffffff#@\232\231\231\231\231\231(@\000\000\000\000\000\000\"@333333$@\000\000\000\000\000\000&@333333\"@\000\000\000\000\000\000\"@\000\000\000\000\000\000#@\315\314\314\314\314\314#@\232\231\231\231\231\231&@\000\000\000\000\000\000!@ffffff%@\000\000\000\000\000\000\"@\232\231\231\231\231\231#@333333$@\315\314\314\314\314\314\"@\000\000\000\000\000\000&@\315\314\314\314\314\314\"@\232\231\231\231\231\231#@\000\000\000\000\000\000\"@ffffff\"@ffffff!@333333\"@ffffff\"@\232\231\231\231\231\231#@ffffff\"@\000\000\000\000\000\000%@ffffff#@ffffff!@\232\231\231\231\231\231\'@333333$@333333%@ffffff#@ffffff\"@\315\314\314\314\314\314$@333333%@\000\000\000\000\000\000\"@\000\000\000\000\000\000#@333333%@\000\000\000\000\000\000#@ffffff%@\232\231\231\231\231\231\"@\000\000\000\000\000\000#@\315\314\314\314\314\314*@33333\263&@\232\231\231\231\231\231&@\000\000\000\000\000\000)@333333#@\232\231\231\231\231\231\'@\000\000\000\000\000\000$@\315\314\314\314\314\314\"@\000\000\000\000\000\000#@\000\000\000\000\000\000(@333333!@\232\231\231\231\231\231#@\232\231\231\231\231\231#@\315\314\314\314\314\314$@\000\000\000\000\000\000#@\232\231\231\231\231\231!@\000\000\000\000\000\000$@333333(@\315\314\314\314\314\314(@333333$@333333\"@\000\000\000\000\000\000\"@\315\314\314\314\314\314%@\000\000\000\000\000\000$@ffffff$@\315\314\314\314\314\314\"@ffffff\"@\232\231\231\231\231\231\"@ffffff\'@\000\000\000\000\000\000#@ffffff%@\000\000\000\000\000\000\'@333333\'@\315\314\314\314\314\314$@\315\314\314\314\314\314\"@ffffff(@\000\000\000\000\000\000$@\000\000\000\000\000\000\'@\376\020\021\021\021\021$@ffffff$@\315\314\314\314\314\314\'@\315\314\314\314\314\314!@\232\231\231\231\231\231$@\232\231\231\231\231\231#@\000\000\000\000\000\000$@"
      }
    }
  }
}
node {
  name: "tensors/component_1"
  op: "Const"
  device: "/device:CPU:0"
  attr {
    key: "_output_shapes"
    value {
      list {
        shape {
          dim {
            size: 4278
          }
        }
      }
    }
  }
  attr {
    key: "dtype"
    value {
      type: DT_DOUBLE
    }
  }
  attr {
    key: "value"
    value {
      tensor {
        dtype: DT_DOUBLE
        tensor_shape {
          dim {
            size: 4278
          }
        }
